/**
  ******************************************************************************
  * @file    network_data_params.c
  * @author  AST Embedded Analytics Research Platform
  * @date    Tue Apr  7 14:45:28 2026
  * @brief   AI Tool Automatic Code Generator for Embedded NN computing
  ******************************************************************************
  * Copyright (c) 2026 STMicroelectronics.
  * All rights reserved.
  *
  * This software is licensed under terms that can be found in the LICENSE file
  * in the root directory of this software component.
  * If no LICENSE file comes with this software, it is provided AS-IS.
  ******************************************************************************
  */

#include "network_data_params.h"


/**  Activations Section  ****************************************************/
ai_handle g_network_activations_table[1 + 2] = {
  AI_HANDLE_PTR(AI_MAGIC_MARKER),
  AI_HANDLE_PTR(NULL),
  AI_HANDLE_PTR(AI_MAGIC_MARKER),
};




/**  Weights Section  ********************************************************/
AI_ALIGNED(32)
const ai_u64 s_network_weights_array_u64[6875] = {
  0x7f83b0cbffffffffU, 0xda3329e2c69cee05U, 0xf9cff5ca5ca680e3U, 0xe0f61befb5f218deU,
  0x7db23b4e863b5d9U, 0x1680ebf67fb73832U, 0x4a9731d8ddeb8ff5U, 0xdf1fe56ef3dd43c0U,
  0x2af9eedaebb8f407U, 0xedced45092bd06aaU, 0xf6fcee01d03d82d6U, 0xaaa39cd97f807321U,
  0xbbf780c1f9e0ee12U, 0xa0ae2b9991ae7fc1U, 0xb4a59fb4ada9aaeeU, 0xe1d4c5a786c3b3cbU,
  0x7f2b8125d9f6bba8U, 0x6a7fd281ce733b27U, 0xdc62967ff481fe14U, 0xb2abba81d91b7f81U,
  0xd8104ce81fe810eU, 0x81b6178194f17ff3U, 0xb648167234c8149U, 0xf381c57f0c2b117fU,
  0x5607f15e7198112U, 0x63814fe3810f9481U, 0x381f27b64811c81U, 0x7f4dfdf87fd0ca81U,
  0xffffffb2f9be7f2cU, 0x2400000004U, 0xffffffa8ffffff73U, 0xffffffb5ffffff4dU,
  0x36ffffffd2U, 0xffffffe8ffffffdaU, 0xffffff98ffffffe1U, 0xfffffff600000010U,
  0xffffffef000000cfU, 0xffffffa8U, 0x2f00000008U, 0xffffff6effffffd2U,
  0x3e000000c0U, 0x1dfffffff2U, 0x3bffffffaeU, 0xffffffb7ffffffffU,
  0x367f127affffffb7U, 0xebf5ab4c0cb9c2bcU, 0xb96c81f71fbad5fcU, 0x3581241cb63f3b64U,
  0xd48916815169f93aU, 0xd4dbb3c547032913U, 0x45c8e82309c14c81U, 0xec62545e815d5d7fU,
  0xfaabc9f091afed1cU, 0x9970ad5d52cfcf7fU, 0x2c65e3194c2814bU, 0x37d9ead378cbbe7fU,
  0x5ba0c87f361dda35U, 0x924810cc526de2dU, 0x416e826324622f7fU, 0xde210c7f5b8ce78eU,
  0x667bf3c2d9a4ae00U, 0xff3785b0c86b7ff8U, 0x81bef311f28c7f52U, 0x81470d1601b0d812U,
  0xd10473aefbfbe9aeU, 0xff7f260ec4d8f2e5U, 0x4e3c197f201bc6f1U, 0xb952107ff6db012aU,
  0xf4fd780edbe5817dU, 0xc463bca91f7f0c3cU, 0x3ab9bd72604ace66U, 0x99323098813c9be5U,
  0x46602db27f2d73ffU, 0x41815c67fd27fdU, 0x2d8140cafccb8322U, 0x7f4f93030f93200fU,
  0x39dd7b418bf813bfU, 0x10027f1e61afae81U, 0x1d5a07b6378129e1U, 0x19506d5e4be969dU,
  0xffffff92dff07f20U, 0xffffff600000001dU, 0xfffffe97ffffff76U, 0xffffff84ffffff66U,
  0xffffffc3ffffffefU, 0xe4ffffff71U, 0x1ffffffbbU, 0xffffff24ffffff87U,
  0xffffffd6ffffff8eU, 0xffffff65ffffff9eU, 0x540000001cU, 0xffffffa50000006cU,
  0xffffffb2ffffff7cU, 0xffffff4effffff70U, 0xffffff3bffffffaaU, 0xffffff2effffff41U,
  0xdacf050fffffffbdU, 0x3b177fef59dd31f0U, 0xeeb8e2174d31fc2cU, 0xe1e01ec38d3c3947U,
  0xd4f8ca1ca4f511dbU, 0xed0dd8d414d82631U, 0xb0a91c8919103155U, 0x10ec8cf02db51U,
  0x3c1a054bad442249U, 0xbe0adaedef6cc74dU, 0x10eaf31f8137012U, 0x4a1aa805aa4151fbU,
  0xa25fee5c6bafcffU, 0x223f1dbc9ade2b05U, 0x6264fbfb1bf2d5f4U, 0x22dd2b545260fd5U,
  0xda1af1ebedb91324U, 0x81ab30fc17e3d1e2U, 0xd7e6162223e5bfdaU, 0x2633f2fc62f2106aU,
  0xae33c8dfb71e0392U, 0xc0cfbb0cff610a6U, 0x3fdbf2c6f62310f2U, 0xe33f1feda31f9a97U,
  0x3cec84112abb06b9U, 0xd8c705e4cbfddc2dU, 0xf391e3bf5cedb5f8U, 0x383dca87de11e220U,
  0x23eb1fdfb7d2edddU, 0xaa2789e4f916c7f8U, 0xd7e7cf5ddde0e1d2U, 0x295f11b4dcd5d918U,
  0xf1f25edc00e9f294U, 0x2e0e2a71e50122e1U, 0x605e47622c30821U, 0xb1dba9cef02708a5U,
  0x4dab0caab7bc0e81U, 0x9517281d08cd021bU, 0xd277cd1bdbf04df4U, 0xfa28fccaa2ff3afbU,
  0x51b370195bf0543U, 0x861dc32f4ab01fc9U, 0x26d744c2c8c6eb89U, 0xe722df3448b56b09U,
  0xfff038f2ebef6902U, 0x140bf6c82df9f801U, 0xb2bd4908e6cce317U, 0x5720a00aa0002096U,
  0x1844d1cd0a7fff5cU, 0xcff20ce743f6e155U, 0x10f7ea1a4ef448fdU, 0x1be40de9cc25810dU,
  0xeb8dbdec9989ecbU, 0xe1e146f105fb19eaU, 0x19281f1d0e111828U, 0xf2331124ed9e05ccU,
  0x977ec11e4ff2e41U, 0xc00fcedca1b41d3U, 0xe407aebadc1aeb61U, 0xfbc6d8304613a1c0U,
  0xd7f41eb08e5a1bf3U, 0xeb0f14db7cc6289fU, 0xbb10d00be91c81baU, 0xa00273224db27ebU,
  0xfff723433de33a17U, 0xa50f071c201d0339U, 0xbd190fffc7d9fa33U, 0x2c04e94ce6cad20aU,
  0xe0d12611b0c3000aU, 0xc1f0e0e76416fa17U, 0xa69740beeef0f3eaU, 0x1cfe3119c343e9e6U,
  0x9db2f9cfd32edc25U, 0x49d9e77ff35260adU, 0xf61714b41eaec6ceU, 0xc50cd6b0f3c045ddU,
  0x372fe8380cfb0bf5U, 0xa50dd03b400b1e02U, 0xe804dc1cddedd13eU, 0x1e35f91351eed7efU,
  0xeaa30ed816241c45U, 0xe816b2f8189a91deU, 0xb9a65934b610e38dU, 0x6c2e9eec0daa5139U,
  0x1c58ce818304d818U, 0xdff64ffff9f985ffU, 0xd002f3cab5a4eed5U, 0x39ccef478adf8feU,
  0xfd0beab990e3ecfcU, 0x460906effe6c30cbU, 0x269dc74869e6e224U, 0xf6c8efc4cfc4c421U,
  0x241bf4374c0ff695U, 0xcdf8ad1e0a25e81bU, 0xb9f315df524fd8e5U, 0xedd43266d9c22518U,
  0x2a1ce21d04f3d54dU, 0x12908112f2a4fa07U, 0xd040d203e1e43927U, 0xc567297ee0212065U,
  0x270306115fcecfc2U, 0xe31e2bb209f90ca6U, 0xed2712cb3e16fa10U, 0x222cf00ebbc4d33dU,
  0xe60910193c553b14U, 0x28d622232828cea6U, 0xdd0dd05919d6829dU, 0xf7cbd70cfdee03ceU,
  0xfe510e0b2e1097cU, 0xfcfc31cd60932eaU, 0x24ef37bb8e2ab032U, 0x1c71f8db832e37feU,
  0x8cc48241225308f9U, 0x5a1cdcdec9fbd6e0U, 0x4c8b29240060dcd4U, 0x407bcfabd223ebc3U,
  0xd3e567bff2114406U, 0x535ab5fe3c9822fU, 0xaaeed5c437e0f6d1U, 0x7fd61f10c3dc0cceU,
  0x893c8f310cac40f9U, 0x1d0bb2f61e084ab7U, 0xfb284ffb31362e0fU, 0x3004fd10ac6ae62eU,
  0x15f9d1d8fe22b5d2U, 0xede0eacbb017fbbdU, 0x2fcc1dd13fd6cfbeU, 0x5f06ecd18681003eU,
  0xecf9e8d1aad8e8a9U, 0x2a4661f523d364f4U, 0x2b41ddfdef23e09fU, 0xbe10defcb4e6f852U,
  0xf7e4a73f0875ae37U, 0xd0de61c20984bbd1U, 0xa5be13f9a1f00ba9U, 0x1dde232db0f8f05fU,
  0x40ebd32a2ff30fe5U, 0xddc600ded99ba7a3U, 0x9ef7edab5785ce2fU, 0xae3e4826cede25f5U,
  0xbef5473213c0673cU, 0xb51618b8bfdbf5a8U, 0x31c9e31ffc5c2105U, 0x159a7fff1824c8a0U,
  0xe877f21ceb545f07U, 0xdb72bd0b339e3fa8U, 0x32d2dbdfd51b3bceU, 0xee3958df05dee7f2U,
  0x19c638e84f8483d2U, 0x34fed01cbf5540f3U, 0x6ebed4d6c827cb01U, 0xbb252e1481a29920U,
  0xec14342711cfcc98U, 0xbd375ad3e1e060feU, 0xff10eb1d5eeb171aU, 0x1a24e98419591f05U,
  0x3f5c36ca11cd2bacU, 0xff0d4bd85d491f2dU, 0xb7c704f30607b30cU, 0x5ad0cf12a60ee20aU,
  0xc5eb4ba44274d094U, 0xabe5e0cac4a7f114U, 0x40dcfb083238beaaU, 0xf6145da17269b17U,
  0x578481cdf6cb3612U, 0x5e0217cc214ad858U, 0x6e6afdf3422ea4eaU, 0x5548f5ffd832beb2U,
  0xf0cba0ae4cd4328cU, 0x4781197033b6cfe4U, 0x39056f38f0c1ed08U, 0xf492d746070c0627U,
  0xc540e58515fe1a34U, 0x46f6da617ff941ceU, 0xe647e575042a2d17U, 0x8a351203e124fce7U,
  0xf1fa340719e6f860U, 0x3404921b36e9d71fU, 0x8e69e905ef17009fU, 0x4a1e1cf14d162cc7U,
  0x30fc600b3022fed5U, 0xfe2a2f4c9a6dac4U, 0x28cbf11e5a1cf202U, 0x3f102d50ce0e4a3U,
  0xbc8f6092466e3aaU, 0x42920f04242f2437U, 0xf90723e238e515f1U, 0x219ad52b13ff0b03U,
  0xd5b8d63e1bf124f5U, 0x24c5fd1f7f24c92bU, 0xc633065d02e34206U, 0xc2fda314740109faU,
  0x4ca26fd1d630127U, 0x4733dcde22d081e9U, 0x1aafb28effbcbe2U, 0x2c9e3cd86d35a11eU,
  0xf57ed823e439f903U, 0x6f5fcfb4554111dU, 0xaac51e03d7eee03eU, 0x433de070b48ba2fU,
  0x340c05fa471cd5ecU, 0xfd9bc220f0e0c43U, 0xbdd9f1fee8ecbea7U, 0x3b0fb5e10f50cd09U,
  0xdbf7e4cfebebc662U, 0xd89be8e6e8a2d901U, 0x49dce3d38fa8f812U, 0xbfcfd85edceffc96U,
  0xfef91bd9cd3943c0U, 0xfbf7ccfdf9a5d63dU, 0x5637172be2f2d000U, 0x39445f758ce5c300U,
  0x2d1ba5f6dc10f1bbU, 0xfbe35dd1dfdc2111U, 0x8118f599e13a2c05U, 0xcf1d0321df1c2028U,
  0x9df3b9dd06f01969U, 0xc10a3fb61fafeefdU, 0x8a04e5c98465b4b4U, 0xcdbc7bfacbccc6b4U,
  0x5ddbdba73ccb00cbU, 0xb735f6aa100a0309U, 0xa7f03116b4e8312aU, 0xaecabad7cbf1fc18U,
  0xc4441afa1ea4d400U, 0xd9e7c718240cd64dU, 0x91fab74f34c82c70U, 0xaff67fdfdbcfa0b1U,
  0x51ba70bd735a6cdU, 0xf3d9ca4021e5bce7U, 0xb9c0ef81c7391c38U, 0xfdf32300c84adbfeU,
  0x13bd3228dac9112cU, 0x6330754ebecc23eaU, 0xd4e31013ba3001ddU, 0xfcf1bd33eb27ee4cU,
  0x1a05b6372d043a8bU, 0xc10226748c150ec9U, 0x4033af684eefcf3U, 0x1dbf641038a80c51U,
  0xdf4cce41d012a3b4U, 0x9c88e720b6f0be9dU, 0x63c90908138505e2U, 0x603ed9cefe2a681U,
  0x151f29f8d6f04760U, 0x2ba9f7d110c07142U, 0x46c423223cdf1ce0U, 0xb838cca4a8d83deeU,
  0xcc4edf8e1c3effddU, 0xd1d8a3e503c70bb2U, 0xd3fd3aced1d10d21U, 0xc96613533d4bf34U,
  0x3c4bf0f08af5d013U, 0xedc43d8fbd3ef23bU, 0x1214060d5725fc0cU, 0xc6ba01ab4b1d9541U,
  0x114accfe86e7e100U, 0xd7cb1f1dddd9c3b8U, 0xea5aebefde19b612U, 0xcffdb1ef06e19e7U,
  0x1ede3e63d9cc0b08U, 0xfc07bb09883fdf03U, 0xf94d9524f6812c72U, 0xfcd70c362a571d57U,
  0xe4db81509500b408U, 0xfdd49dd80528101aU, 0x2a553a1ad7f5c4fcU, 0xb7d8e4caede1fdb4U,
  0xbf3fd4ee4e5d300bU, 0xd0e7d7da92174e33U, 0xfda6d0172b1b3a53U, 0xbcd1e0ab0bf91cc4U,
  0x5ee9f515613b03c1U, 0x20b46dfeb812c6b9U, 0xf20fdd70cdfa290fU, 0x1ef1fb541e2bc6d1U,
  0x47753c2a423d3e42U, 0xcc604c012f01f6e8U, 0xacc7b9e9169ed95dU, 0x9f43f004ef2336eeU,
  0xb3e2cd030cb78113U, 0xe9f53e1c9714c5d6U, 0xe24e19e849d7f461U, 0xfce93ffa9d4b98daU,
  0x34e6daeedcf8c8c1U, 0xca961d02e6e2df3eU, 0x2bfe105bf7fa2e34U, 0x171bdd455eaaa0bU,
  0x10601f9003e5151U, 0x23bb24ad054a0302U, 0x6e8badfea4003f9U, 0xd60c212532d7011cU,
  0xcf9af6072e2b3acdU, 0x1afedf5037062a9aU, 0x5ff1f3848db08f5U, 0xa5e2ca8e3d15efbU,
  0xf0695081b82712b4U, 0x48160d09139ff20cU, 0x3c0ecfd7e31f16f7U, 0x2440e25c2cce4184U,
  0xfdb0f2006d1429f3U, 0xe7b9f6f02675a70eU, 0x71e30e3aa9301bd0U, 0x43e910e86c0181ddU,
  0x1538df0790c68f01U, 0x56c3515345e350b8U, 0x871852e1fb471eb0U, 0x12932cf41f2d16d5U,
  0xef102cbd1b11383dU, 0xc3b7150207c42122U, 0xf5d2e9b001848195U, 0x3ae8e70d3346d6aaU,
  0x1336c0b92ca25225U, 0xea8825f6ea3b4a1eU, 0xfffb63ba51dd202eU, 0x65d544b81d16bafcU,
  0x32f5001356f7c5f0U, 0x6c17f75853d07b61U, 0x47dbfa1f7f0bdc06U, 0xcc1e3b0ed2afff51U,
  0xdfb2a91e70de559aU, 0x18f800ccc03124d8U, 0x152842f2d0f1d8cbU, 0xf52f02ccf02cc849U,
  0xef668dd2ea995320U, 0x3421b30be4cd3bd4U, 0x60075e34be4a6fe3U, 0x61f3b735effabff1U,
  0xf35ac25181f1e1edU, 0xce94ee130115fe3dU, 0xae4afce407eab6dfU, 0xf1e9402708200107U,
  0xd507031e1125faf2U, 0x2b225515c81df86dU, 0xb3010d37547bf703U, 0xf3351d64c8e8fdb5U,
  0xe71b45aa1a3516edU, 0xbcf17daf1ac2eeaU, 0x6d0f324cf1950f0U, 0xecfdc020221e5ceU,
  0x1ee7f4495234f00eU, 0x2cfededeefec3426U, 0xeb9c00fce704d80cU, 0xf661abee3b291df4U,
  0xf8eafa033d5623e1U, 0x811bff0a698321fbU, 0x1ffdec22ece941ddU, 0xd1a2206050b831caU,
  0xf5ff2821350cf8eeU, 0xd8f0352300adfb0eU, 0x331d6b2d99eae440U, 0x2541b16e0d1c441dU,
  0x810c0dc2bfb2d1d2U, 0x480856f74116adbaU, 0x12ed306bfcf8df14U, 0x24b7b8f5bad90cU,
  0xe0bcf5ee1512cc61U, 0x17a5afe410abca23U, 0xceddfd3dfa433accU, 0x11d2a1dedb31df6U,
  0xd03ad2752f2b5329U, 0x9b02fabfe4d5d835U, 0xbef71834dfff12c2U, 0x4ccbc50ee4e44210U,
  0x9daa046efc04216U, 0x3eebe84753d29c0cU, 0x35deefefd341bc14U, 0xb486cf10a248d781U,
  0x4e19e3ce1a212bfaU, 0x73d461c627e5d247U, 0x3ddbaef7621fc6f2U, 0xd212b7120966c2efU,
  0xf7490c2221421edbU, 0xb9e1d2121f61dbfaU, 0x2b9e8e083fc7907U, 0xec2de6ad04e8d014U,
  0xee090c325eae0f53U, 0xcc9460e0a01dd0aU, 0xbedbdc8a3ec1b57fU, 0x9b2aff05cff3ffebU,
  0x8cf4b11fd7abfd33U, 0x961b27b7b91f239fU, 0xfa4d4a22b82026f2U, 0xf736e2fdd8eabad9U,
  0xfffffef9c719d0f2U, 0xfffffe4efffffe59U, 0xfffffe12ffffffc8U, 0xbafffffe77U,
  0xffffffb4fffffef6U, 0xfffffe3a00000008U, 0xffffffbbfffffe83U, 0xffffffbaffffff29U,
  0xfffffe9effffff73U, 0xfffffef0ffffff48U, 0xfffffee0ffffff43U, 0xfffffe94000000d5U,
  0xffffff420000008cU, 0xffffff1bfffffd8aU, 0x3bfffffe5eU, 0xfffffdb400000043U,
  0xbe8302eafffffe7dU, 0x3da90c043e4dac7dU, 0xbe0cdf593e88a573U, 0xbe046b8cbe8a0e15U,
  0xbe6caa6d3e4538b0U, 0xbd8cdf59be9f2f95U, 0x3e18246a3e8fb09dU, 0x3d9dc6f3bdb45116U,
  0x3e507dc1be1281e2U, 0xbdd6204a3d6caa6dU, 0x3dd6204a3dbf9627U, 0x3d819a483e1af5afU,
  0x3d3451163db45116U, 0x3e58f18ebe56204aU, 0x3d819a483e0a0e15U, 0xbdf24cf53e8031a6U,
  0xbd98246abbb45116U, 0x3e4adb39be8031a6U, 0x3e2bdd49be56204aU, 0xbccadb39bd6caa6dU,
  0xbd3451163d345116U, 0xbdc538b03e0a0e15U, 0x3e1dc6f3bde707e4U, 0x3da3697c3c073cd0U,
  0x3e9f2f953e8fb09dU, 0x3e1281e2be39f39fU, 0x3d290c04beb2e874U, 0x3e1dc6f3bdc538b0U,
  0xbd3f96273e8fb09dU, 0xbe1af5afU, 0x3e4809f43cb45116U, 0x3e0fb09d3e019a48U,
  0x3b345116bc61655bU, 0xbe1281e23c9dc6f3U, 0x3e1af5afbe0a0e15U, 0x3d1281e23d61655bU,
  0xbeb0172f3ea09837U, 0x3db451163c073cd0U, 0x3d1281e2bdb45116U, 0xbdd07dc1bdfd9207U,
  0xbe61655bbe42676cU, 0x3e9553263bb45116U, 0xbe1281e2be9af5afU, 0xbe1af5af3db9f39fU,
  0xbe1281e2be8fb09dU, 0xbd9dc6f33e42676cU, 0x3d819a483c345116U, 0xbe8e47fb3e955326U,
  0xbd7feb0bbd6caa6dU, 0x3dca9a13be1ff2e7U, 0xbd9a9e013e6d41e8U, 0x3d5fedaa3e829ff8U,
  0xbe57ee51be0d49c3U, 0x3d7feb0bbe5543dfU, 0x3defec5abe07f4deU, 0x3d15491cbdea9775U,
  0x3c5543df3bffeb0bU, 0x3de5428f3e2d4725U, 0x3d0a9f51be35467dU, 0x3e3ff048be4feef9U,
  0xbdc5452ebd5fedaaU, 0xbd2a9cb2bd1ff2e7U, 0xbd9ff2e7be1d4874U, 0x3db5467dbe35467dU,
  0xbe3a9b63be83f532U, 0xbdea9775bd2a9cb2U, 0xbe1d4874be8bf48aU, 0x3e5543dfbd2a9cb2U,
  0xbea947793e83f532U, 0x3e129ea9bb2a9cb2U, 0x3c95491cbdbff048U, 0x3e2ff198bcd543dfU,
  0x3e07f4de3c7feb0bU, 0x3e5543dfbe15491cU, 0x3d0a9f513d9a9e01U, 0xbcd543dfbe229d5aU,
  0xbdcfeef9be07f4deU, 0xbe6a9775bd854a6bU, 0xbe229d5abe0ff436U, 0xbe8a9f513d9ff2e7U,
  0xbe9bf33b3e869fa4U, 0x3d15491c3ddfedaaU, 0xbd0a9f513e7d4098U, 0x3e894a173d95491cU,
  0xbcea97753cd543dfU, 0x3e1d4874bd754140U, 0x3e1a9e013e62981cU, 0x3e129ea9be27f23fU,
  0x3caa9cb2be3d45d6U, 0x3e77ebb3bd35467dU, 0xbdaa9cb2be3ff048U, 0xbe1a9e01be5d4337U,
  0xbcea97753b2a9cb2U, 0x3cea9775bd5fedaaU, 0xbe62981cbd95491cU, 0xbd3ff048bdf54140U,
  0xbd94299dbc95491cU, 0xbdadb534be37ed0aU, 0x3d2db5343e4c5cb5U, 0x3db2d11fbcb7ed0aU,
  0x3e3d08f43e32d11fU, 0x3d56948b3e65e84cU, 0xbdb2d11f3e994588U, 0x3d237d5ebdc740caU,
  0x3dc740ca3d2db534U, 0x3e14299dbd194588U, 0x3e20ef68bde5e84cU, 0xbe0f0db2be1bd37dU,
  0x3e09f1c73e8dc6b7U, 0x3d8f0db23e37ed0aU, 0x3e56948bbda89949U, 0x3db7ed0a3da89949U,
  0xbdc740ca3e0c7fbdU, 0xbe592281bdb2d11fU, 0x3e0763d23da37d5eU, 0x3d2db5343d4224dfU,
  0x3cb7ed0abe16b793U, 0x3e919ba8bdeb0437U, 0x3deb04373d4c5cb5U, 0xbe260b533e20ef68U,
  0xbe3f96ea3e37ed0aU, 0xbd8f0db2bca37d5eU, 0xbe8c7fbd3d2db534U, 0xbe260b533ba37d5eU,
  0x3bf53c0d3e4c5cb5U, 0xbe5e3e6c3d0f0db2U, 0x3de5e84cbdc740caU, 0x3e5bb0763dadb534U,
  0xbcf53c0d3d04d5dcU, 0x3df02022bd89f1c7U, 0xbe4224dfbce0cc61U, 0xbcb7ed0a3d753c0dU,
  0x3e4224df3e5178a0U, 0x3dcc5cb53d8f0db2U, 0xbd9945883d4c5cb5U, 0xbbf53c0dbdd6948bU,
  0x3b237d5e3e119ba8U, 0xbde5e84cbd60cc61U, 0x3d237d5e3d0f0db2U, 0x3cf53c0dbdadb534U,
  0x3e65e84c3da37d5eU, 0x3ddbb0763dc224dfU, 0xbe194588bea23663U, 0xbd7f73e3be9fa86eU,
  0xbd079648bd89f1c7U, 0xbdbbbc633e19d6d1U, 0x3d3bbc633da1a956U, 0xbe811184be438ee7U,
  0xbe2444d73dbbbc63U, 0xbdbbbc633d6fe27fU, 0xbe33e9dfbda6e058U, 0x3e149fcfbe95ed8fU,
  0xbe5da1f5bdfa5084U, 0xbd3bbc63bb26e058U, 0xbb26e0583e21a956U, 0x3dd5cf71U,
  0x3de03d77bde03d77U, 0xbe3bbc63bdbbbc63U, 0xbba6e0583c50986eU, 0xbd50986ebea1a956U,
  0x3b26e0583e0f68ccU, 0xbe4b616cbe1c7253U, 0xbdff8787bd314e5eU, 0xbd6fe27fbea59298U,
  0x3bfa5084be6d46feU, 0x3da1a956bce57479U, 0x3e314e5ebe0f68ccU, 0xbde03d77bd26e058U,
  0x3e0796483dd5cf71U, 0xbd5b0674bdd0986eU, 0xbd0796483d7a5084U, 0x3ba6e0583e40f366U,
  0x3e6574793dac175bU, 0x3e55cf71bdfa5084U, 0xbdefe27fbdff8787U, 0xbdc62a693cd0986eU,
  0xbd6fe27f3e48c5eaU, 0xbda6e058bdbbbc63U, 0xbe19d6d13c92044dU, 0xbd50986e3e973b50U,
  0xbe26e058bdd0986eU, 0xbd879648U, 0xbc50986e3da6e058U, 0xbe3e57e5bdeaab7cU,
  0xbce574793ddb0674U, 0xbe657479bdd0986eU, 0x3d657479be8a31c9U, 0x3d8ccd4abe727e00U,
  0x3e825f453d50986eU, 0xbba6e0583cfa5084U, 0x3e3bbc63be40f366U, 0x3e5b06743e0ccd4aU,
  0xbe43cc0e3cfa5084U, 0xbd7a9ecb3d271487U, 0x3d87c0aebe342222U, 0x3dc12fbcbd50d9a9U,
  0xbc50d9a93dcba105U, 0x3d1ca33f3d50d9a9U, 0xbe0f95a43e608396U, 0x3ca714873ea1dbe3U,
  0x3e36be743e36be74U, 0xbe6d9130bcfa9ecbU, 0xbea47835bdb6be74U, 0x3ba714873e5de743U,
  0x3d8cf9523e342222U, 0x3e50d9a9U, 0x3d65bc3a3e0f95a4U, 0x3e5b4af1bda71487U,
  0xbdeaf4de3de08396U, 0x3d82880abe50d9a9U, 0x3dbbf7183e890ed7U, 0xbe9f3f913e0a5d00U,
  0xbc271487be43cc0eU, 0x3d8cf9523e4e3d57U, 0xbe3bf718be5375fbU, 0xbe4ba1053e3e936aU,
  0xbe342222be976a9aU, 0xbe176a9abddb4af1U, 0x3e0cf952be780279U, 0xbcfa9ecbbc271487U,
  0x3c9231f63e5b4af1U, 0xbca714873e890ed7U, 0xbdd6124d3de08396U, 0x3dcba105bba71487U,
  0xbd9ca33f3dd0d9a9U, 0x3dac4d2b3d65bc3aU, 0xbce5bc3abe8139e1U, 0xbea5c65e3d9231f6U,
  0x3cd0d9a93e56124dU, 0xbdc12fbc3e176a9aU, 0x3e82880a3cd0d9a9U, 0x3e466860be0f95a4U,
  0xbd65bc3abd50d9a9U, 0x3bfa9ecb3dffd76fU, 0x3e3422223e5de743U, 0xbe6af4debd50d9a9U,
  0xbc50d9a93da1dbe3U, 0xbdb6be74be5375fbU, 0x3d976a9abe961c71U, 0xbdc668603c7a9ecbU,
  0xbdfdf690be1ca33fU, 0x3e54b1b2be888154U, 0x3e0554a53e907108U, 0x3dfdf6903d57de61U,
  0x3e67bdcabdbe78ecU, 0xbe61646d3ce4911bU, 0x3eb02fda3e1b8d6cU, 0x3e9eba1a3b4b2ba7U,
  0x3e2513773bcb2ba7U, 0xbe381f8fbd0bae03U, 0xbdcb2ba7bcb1c632U, 0x3e747084bdf143d6U,
  0x3c7df690bc7df690U, 0xbe31c632be0554a5U, 0x3eb35c89bb4b2ba7U, 0x3d3e78ecbe381f8fU,
  0x3cfdf690bd9eba1aU, 0xbd4b2ba7be61646dU, 0xbd57de61be381f8fU, 0xbdcb2ba7be8d445aU,
  0x3dde37bebe251377U, 0x3d4b2ba7bd7df690U, 0x3dbe78ec3e44d249U, 0xbe9b8d6c3d64911bU,
  0x3e47fef83e0227f7U, 0xbe54b1b23e64911bU, 0x3c9860bdbe54b1b2U, 0xbd64911bbe34f2e0U,
  0x3d9860bdbd7df690U, 0x3ec9954f3ce4911bU, 0xbc9860bd3e088154U, 0xbe64911b3deaea79U,
  0x3d8554a5beab6cd5U, 0xbcfdf6903d0bae03U, 0xbdf143d6be907108U, 0xbe088154be0227f7U,
  0xbe15340e3dab6cd5U, 0x3d57de613e7143d6U, 0x3bcb2ba7be2b6cd5U, 0xbe34f2e03d7df690U,
  0xbccb2ba73c4b2ba7U, 0xbc4b2ba73db1c632U, 0x3e9b8d6cbcb1c632U, 0xbe8881543c1860bdU,
  0xbd8bae033e0554a5U, 0x3e44d249bdde37beU, 0x3d8554a5be64911bU, 0x3e4e5855be54b1b2U,
  0xbdf3a6febdb81f8fU, 0xbe98485fbe47cb7eU, 0xbe14a0bf3dccaafeU, 0x3e7fd5be3e84ca5fU,
  0x3dccaafe3e0fc13fU, 0x3e6c57bebd8d517fU, 0x3cfd65febe0fc13fU, 0x3c42ebfebb9befffU,
  0xbc8871ffbb1befffU, 0x3c1befff3d1befffU, 0xbe8ae1bfbe4f1abeU, 0xbe17107fbe392cfeU,
  0x3e90f91fbe4caafeU, 0xbe0d517fbdaf6dffU, 0xbdaf6dffbb9befffU, 0x3d392cfe3e58d9beU,
  0x3c9befffbe4caafeU, 0xbe4f1abe3e19803fU, 0xbd97107f3d1befffU, 0x3e73a6febe8e895fU,
  0x3b9befff3b9befffU, 0x3c9befffbd42ebfeU, 0xbdccaafe3da5aeffU, 0x3e2a8e7fbdaa8e7fU,
  0xbe20cf7f3e19803fU, 0xbe6298be3e0871ffU, 0x3dccaafe3d9befffU, 0x3e69e7febdbe0c7eU,
  0xbe233f3fbe4f1abeU, 0x3e9ab81fbce9e7feU, 0xbd1befffbe5669feU, 0xbe4caafe3e5669feU,
  0x3e0d517fbe1230ffU, 0xbe5669fe3e25aeffU, 0x3b9befffbbe9e7feU, 0xbe7fd5be3e83927fU,
  0x3c9befff3dfd65feU, 0x3b1befffbe518a7eU, 0x3e1230ff3e0fc13fU, 0x3dc7cb7ebe65087eU,
  0x3c9befff3e0ae1bfU, 0x3d97107f3d6028feU, 0xbcaf6dff3e8871ffU, 0x3e89a9df3e4caafeU,
  0xbe42ebfebe392cfeU, 0x3d83927fbde9e7feU, 0xbd392cfebe455bbeU, 0xbe6ec77ebe8871ffU,
  0x3c592593bd0871ffU, 0xbe07b77cbb2db7a9U, 0xbe35dc45bcd92593U, 0xbdd92593bceedc88U,
  0x3dbe00e13dc8dc5bU, 0xbeac5c3a3d6edc88U, 0xbde4010ebe8d2539U, 0x3e3325663d0d2539U,
  0xbb2db7a93e05009dU, 0xbdc36e9ebe5bdc72U, 0xbe07b77cbe0a6e5bU, 0xbe1549d53b2db7a9U,
  0x3e436e9ebe7f25c0U, 0x3d64010ebdc36e9eU, 0x3df9b8033c0249bfU, 0xbe0d25393da2dc2eU,
  0xbd79b8033e2849ecU, 0x3da849ec3e87b77cU, 0xbe25930d3d8249bfU, 0x3e22dc2e3d6edc88U,
  0x3da2dc2ebdbe00e1U, 0xbe306e88U, 0xbe0d2539bc8249bfU, 0x3da849ec3d6edc88U,
  0xbc2db7a93d6edc88U, 0xbd4e4a193e6edc88U, 0xbe1549d5bdf44a46U, 0xbe3e00e1bd6edc88U,
  0xbe93ee66bde96ecbU, 0x3e1d6e71be9d6e71U, 0xbd9292f73badb7a9U, 0xbd22dc2ebdbe00e1U,
  0x3c0249bf3cadb7a9U, 0xbd0d25393db89324U, 0xbde4010ebe4e4a19U, 0x3d64010ebe64010eU,
  0x3cd92593bdce4a19U, 0xbd9292f7be0249bfU, 0xbe0a6e5b3d6edc88U, 0x3e2849ecbe995c23U,
  0x3e05009d3d0d2539U, 0x3c9800b4bde96ecbU, 0xbcadb7a9be2849ecU, 0xbc0249bf3cadb7a9U,
  0xbe592593bd9d6e71U, 0x3e2b00cabe64010eU, 0xbc0249bfbd0249bfU, 0xbe46257dbdd92593U,
  0x3c87832abd22dc2eU, 0xbd34aee2bd87832aU, 0xbd1e19063e04b06eU, 0x3de1da9b3e5c3524U,
  0xbd7870773e3ff9d1U, 0xbe9b464bbc87832aU, 0x3e18738f3dd0ea36U, 0xbd4b44bfbc87832aU,
  0x3e12ce183dc59f48U, 0xbd9e1906be9e1906U, 0xbd3ff9d13e98738fU, 0x3dbff9d13b34aee2U,
  0x3e0a55e5be2963f4U, 0x3e3d27153e269139U, 0x3db4aee2be9f8264U, 0xbd6d2589bd07832aU,
  0xbe34aee2be2963f4U, 0x3e42cc8cbde78012U, 0x3d1e1906be15a0d3U, 0x3d34aee2be64ad57U,
  0xbe6ff845bb34aee2U, 0xbdc59f483d787077U, 0xbe8ffb5cbc87832aU, 0x3e943776be0ffb5cU,
  0x3dbff9d13c34aee2U, 0x3db4aee2U, 0xbdf870773e2c36b0U, 0x3de78012be4e177aU,
  0x3de780123cf87077U, 0x3c34aee23e6a52ceU, 0x3e8e91ffbe15a0d3U, 0x3d8d28a1bda963f4U,
  0x3e37819ebe678012U, 0xbe18738fbd8d28a1U, 0x3daf096bbe2963f4U, 0xbe92ce18bd81ddb3U,
  0xbc07832a3d92ce18U, 0xbe1e1906bdba5459U, 0x3e459f483d787077U, 0x3e269139bd787077U,
  0x3df2cb00be5c3524U, 0xbe9f82643e8d28a1U, 0x3e5f07dfbdd0ea36U, 0x3e20ebc2bd3ff9d1U,
  0xbe787077beb34585U, 0xbe95a0d33e5c3524U, 0xbdf2cb00bce1da9bU, 0x3dcb44bfbd07832aU,
  0x3d607c283cf87077U, 0xbe752946be04eb33U, 0xbe607c283c8dc7adU, 0xbde6647abdcec332U,
  0x3dab51473d6c4cccU, 0xbdec4ccc3e01f70aU, 0xbc0dc7ad3cd4ab84U, 0xbe54ab84bd781d6fU,
  0xbdcec332bd0dc7adU, 0xbe66647a3c6c4cccU, 0x3e981e3dbd0dc7adU, 0x3d9998513e42f28eU,
  0xbe04eb33bdbd0a3cU, 0x3de6647abd313999U, 0xbdcec332bb3d0a3cU, 0xbdc2f28ebd999851U,
  0xbe6c4cccbde07c28U, 0xbebb9028bc0dc7adU, 0xbe0dc7adbcd4ab84U, 0x3db721eb3d48dae0U,
  0x3d6c4ccc3e16a428U, 0x3d2568f53e87df5bU, 0xbe1f80a3bc6c4cccU, 0x3e781d6f3eae4570U,
  0xbe0ad3843d313999U, 0x3cec4ccc3b3d0a3cU, 0xbdcec332be6f40f5U, 0xbdb721ebbdd4ab84U,
  0xbda568f53e313999U, 0x3e16a4283d0dc7adU, 0x3e3721eb3e9f80a3U, 0xbd48dae03d2568f5U,
  0xbe5d87ffbe81f70aU, 0xbd8dc7adbc8dc7adU, 0x3b3d0a3cbe1c8c7aU, 0xbe54ab84bd3d0a3cU,
  0xbe6f40f5bd8dc7adU, 0xbb3d0a3c3dc2f28eU, 0x3e87df5bbe3721ebU, 0x3e87df5b3e66647aU,
  0x3d87df5bbe952a14U, 0x3d2568f53e9c8c7aU, 0x3eae4570be66647aU, 0xbe4bcf09U,
  0x3d199851bdf81d6fU, 0x3d81f70a3e93afffU, 0x3dd4ab84bd8dc7adU, 0x3db721eb00000000U,
  0xbe015522bd781d6fU, 0x3df1cbaebb33f0e1U, 0xbe90cbd53dca6efdU, 0xbc86f4a9be25e20fU,
  0x3e939b99be479f3aU, 0x3da8b1d3be9aa301U, 0xbd28b1d3bbb3f0e1U, 0x3ce0ed19be815522U,
  0xbe939b99be63bcddU, 0x3d33f0e13e749b72U, 0xbea749f100000000U, 0x3e695c64beb288ffU,
  0xbcf76b353e36c0a4U, 0xbe1d72c53e9aa301U, 0x3d6c2c27bddb4d92U, 0x3e5b4d923c06f4a9U,
  0xbd06f4a93e86f4a9U, 0xbcb3f0e13e52de48U, 0x3d33f0e13c9d72c5U, 0xbdc4cf763d8c9430U,
  0x3c9d72c5bc60ed19U, 0xbe858cc73dca6efdU, 0x3ddb4d923c86f4a9U, 0xbe2b81963e885c8aU,
  0xbe09c46cbe09c46cU, 0x3e0155223de68ca0U, 0xbe1d72c5bcb3f0e1U, 0x3e23124c3e3c602cU,
  0xbdf1cbaebdd00e84U, 0xbe09c46c3d815522U, 0x3ea1aa6abdf76b35U, 0xbe06f4a93e6c2c27U,
  0x3da8b1d33dd00e84U, 0xbe500e843e33f0e1U, 0xbb33f0e1be0424e5U, 0x3e858cc73d776b35U,
  0xbd776b35bde0ed19U, 0x3d776b353bb3f0e1U, 0xbc86f4a9bdb3f0e1U, 0x3e5e1d56be5e1d56U,
  0x3db3f0e13e0c9430U, 0x3e2b8196be015522U, 0xbdb990683cca6efdU, 0x3e15037abcb3f0e1U,
  0xbde68ca0be500e84U, 0xbe89c46cbb33f0e1U, 0xbe8b2c4ebdd00e84U, 0xbde68ca0bd3f2fefU,
  0xbe13621abe9233b7U, 0x3db0dc1fbe28d21eU, 0x3da0c81c3e76882bU, 0x3dbb9421bbab801eU,
  0xbe3b9421bc566026U, 0xbd00a017bdfbe42cU, 0xbe3e42213d76882bU, 0x3d40f022beaa291eU,
  0x3d90b419bc566026U, 0xbdb63820be40f022U, 0x3dc0f02200000000U, 0x3d363820be00a017U,
  0x3e38e6203d4ba824U, 0x3debd029be3b9421U, 0x3e18be1b3e40f022U, 0x3cebd029be38e620U,
  0xbbab801e3e363820U, 0xbe9a151b3e9f711cU, 0x3c2b801ebe920b1aU, 0x3de11828bdc64c23U,
  0xbd8b5818be48fa23U, 0xbe23761dbd90b419U, 0xbbab801e3e53b225U, 0xbe73da2bbe8e0619U,
  0xbe0b5818be16101aU, 0x3e9f711c3d8b5818U, 0xbdc64c233debd029U, 0xbd76882b3de67428U,
  0x3c566026be338a20U, 0xbe7e922d3dcba824U, 0x3d6bd029be88aa18U, 0x3e9cc31cbdb63820U,
  0xbcebd029bd8b5818U, 0x3e23761dbe1e1a1cU, 0xbe18be1bbdebd029U, 0xbda0c81cbda0c81cU,
  0x3e875318bdd66026U, 0xbe13621a3ddbbc27U, 0x3e08aa18be0b5818U, 0x3d16101a3debd029U,
  0x3db638203e3b9421U, 0x3cd66026bdd10425U, 0x3df12c2abe439e22U, 0x3e10b4193d16101aU,
  0x3de118283da0c81cU, 0xbe464c23bdcba824U, 0xbd85fc183bab801eU, 0xbd8b5818bde11828U,
  0x3d393d8cbda0c81cU, 0xbe171e00be874635U, 0xbe9ac5f33dccbd4aU, 0xbe14ae08be7b0cadU,
  0x3cfd7ca53e603d08U, 0xbd4cbd4a3d839e42U, 0x3e060e393e345d9cU, 0x3e0aee293dc7dd5aU,
  0xbddb5d183e1e6de7U, 0xbe234dd6bd123e10U, 0xbe567d293e651cf7U, 0xbb1bfdefbe1bfdefU,
  0x3d839e42be5dcd10U, 0x3e84d63ebe2f7dadU, 0xbd393d8c3d2f7dadU, 0xbe25bdcebdfd7ca5U,
  0x3e012e4abe060e39U, 0xbe93760c3caf7dadU, 0x3e651cf7bdb45d9cU, 0xbd25bdce3d9bfdefU,
  0xbe060e39bd923e10U, 0xbe087e31be94ae08U, 0x3c42fd6bbe25bdceU, 0x3e7d7ca5be0d5e21U,
  0xbe998df73d73bcc6U, 0x3da0dddf3e89b62dU, 0x3e58ed21be123e10U, 0x3d567d29bd69fce7U,
  0x3deedcd63dfd7ca5U, 0x3e887e313d2f7dadU, 0xbd887e31bcc2fd6bU, 0xbdc7dd5a3dc7dd5aU,
  0xbe087e31bc887e31U, 0xbe0d5e213d42fd6bU, 0x3df89cb53de9fce7U, 0x3ddb5d18bcd67d29U,
  0x3e20dddfbdd19d39U, 0xbcfd7ca5be234dd6U, 0x3d8d5e21bd73bcc6U, 0xbcd67d29be14ae08U,
  0x3e540d31bcc2fd6bU, 0x3be9fce7bb9bfdefU, 0x3d567d293deedcd6U, 0xbe8e961dbe345d9cU,
  0xbc1bfdef3dccbd4aU, 0xbda0dddfbe2d0db5U, 0x3e69fce7bd7d7ca5U, 0x3d25bdce00000000U,
  0xbe0cc1ccbdbe1d7bU, 0xbe7d5cd53dc79e79U, 0x3e1eabea3dbd61d5U, 0x3ddc17c1be2e06e0U,
  0xbe8285283cf5af5aU, 0xbd56f96f3ce13612U, 0x3d75af5abe146f46U, 0xbb23ca3c3ddc17c1U,
  0x3e213b13bdd6f96fU, 0xbe7320313c23ca3cU, 0xbdd1db1d3cb84383U, 0x3e51db1dbe0a32a3U,
  0xbe4a2da2bd051451U, 0xbde136123da3ca3cU, 0x3d6136123e9327b2U, 0xbdccbccb3e1eabeaU,
  0xbe8f50f4be332532U, 0xbd7febfebcccbccbU, 0xbe028528be384383U, 0xbcccbccbbdfacdacU,
  0xbdae06e03c8f50f4U, 0xbc23ca3cbe028528U, 0xbd0f50f43e8a32a3U, 0xbc8f50f4bd75af5aU,
  0xbe309609be665464U, 0xbd946f46bd998d98U, 0x3d0f50f4be479e79U, 0xbe96fe6fbcccbccbU,
  0xbea282a83e1c1cc1U, 0xbe309609be1eabeaU, 0x3ba3ca3cbe450f50U, 0xbdf5af5abc23ca3cU,
  0x3d8514513c4cbccbU, 0xbe0a32a3bd23ca3cU, 0xbdae06e03e07a37aU, 0xbcf5af5abba3ca3cU,
  0x3cccbccb3e16fe6fU, 0x3b23ca3cbe8f50f4U, 0x3cccbccb3dccbccbU, 0xbd9eabeabd998d98U,
  0xbbf5af5abe428027U, 0x3dc28027bdb32532U, 0x3e3325323deb72b6U, 0x3e332532be198d98U,
  0x3e1eabea3e265965U, 0xbe16fe6fbe4f4bf4U, 0x3d051451bd23ca3cU, 0xbd56f96fbe865be5U,
  0x3cc7aadd3e28e88eU, 0x3e2663b8bdf99595U, 0x3da663b8bda663b8U, 0xbe8c0b66bd5dda4bU,
  0xbd851c943d7f2170U, 0x3de366273e2eb582U, 0xbd47aaddbbb17b6fU, 0x3e37074bbd52c294U,
  0xbb317b6fbe37074bU, 0xbe83b99dbcb17b6fU, 0xbcddda4b3e0d6e5dU, 0x3e2eb5823d317b6fU,
  0x3e7c5b823d90344aU, 0xbdf409b93de36627U, 0x3c9b4c01be5b145dU, 0xbe4a70cbbe2929a6U,
  0xbe20d7ddbe4d36b9U, 0x3e83b99dbe39cd39U, 0x3c317b6fbcddda4bU, 0xbe5dda4bbe44e4f0U,
  0xbcb17b6fbdd84e70U, 0xbe37074bbe5b145dU, 0x3db7074bbe317b6fU, 0x3d8aa86fbe317b6fU,
  0x3e1e11efbcc7aaddU, 0xbe6e7dde3df409b9U, 0xbe2929a6be37074bU, 0xbdbc93263e20d7ddU,
  0xbd051c943e421f02U, 0x3de36627be799595U, 0x3da0d7dd3e4ffca6U, 0x3dee7dde3d52c294U,
  0xbeb01878bdabef94U, 0xbe1886143d47aaddU, 0xbdff2170bd3c9326U, 0xbe317b6fbe12fa38U,
  0x3c9b4c013db17b6fU, 0x3dabef94be8256a6U, 0x3c051c943e0256a6U, 0x3e97231d3e2929a6U,
  0xbcc7aadd3e2bef94U, 0xbdc21f02be558882U, 0x3e4ffca63e47aaddU, 0xbe851c94bdf409b9U,
  0xbdc21f02bd851c94U, 0x3da663b8bb317b6fU, 0xbde366273d851c94U, 0xbcf409b93cf409b9U,
  0xbdd630573c851c94U, 0x3e30f0483db0f048U, 0x3e095c383ded7860U, 0xbd9e5040bdf6c864U,
  0xbe04b436bde4285cU, 0x3e37ec4abdcce053U, 0xbd90583a3c95003cU, 0xbe0708373e27a044U,
  0x3df6c8643e8e0439U, 0xbda7a044be000c34U, 0xbd563057bb15003cU, 0xbe76c8643dfb7066U,
  0xbdd63057be483851U, 0xbe61d45b3d563057U, 0xbe8a8638bc5f805aU, 0x3db59849be838a35U,
  0xbda2f842bd0bb038U, 0x3e334448bd026035U, 0xbe0e04393e5d2c59U, 0xbe413c4e3d7b7066U,
  0x3d826035be722062U, 0x3df6c8643d90583aU, 0xbcba404bbd4ce053U, 0x3cba404bbc3a404bU,
  0x3cf22062bdcce053U, 0xbd90583a3e93d63cU, 0xbc5f805a3cdf805aU, 0xbd3a404b3dba404bU,
  0xbdb59849bd95003cU, 0xbe17543dbd95003cU, 0xbd30f0483cf22062U, 0x3da2f842bc3a404bU,
  0xbd8260353e7b7066U, 0x3d68d05e3d90583aU, 0xbb95003c3e93d63cU, 0xbdac48463de8d05eU,
  0x3de4285cbe518855U, 0xbd5630573e29f445U, 0xbe20a4413d1e5040U, 0xbe27a0443e070837U,
  0xbd4ce053be30f048U, 0xbc5f805abddf805aU, 0x3e68d05ebd99a83eU, 0x3d4ce053bdc83851U,
  0xbdf6c8643d9e5040U, 0x3db0f048be0bb038U, 0x3e4f34543c5f805aU, 0x3df22062bded7860U,
  0xbe37185cbdba404bU, 0x3d8a8efabe8e4517U, 0xbd94749ebe74f39eU, 0xbe3e84973de3a1bfU,
  0xbd859c283e40fe00U, 0x3e486a3c3e283fe6U, 0x3d59bc1b3c6d8763U, 0xbe20d3abbe8e4517U,
  0xbe45f0d3bd94749eU, 0xbdc0fe00bdcae3a5U, 0xbe16ee07be283fe6U, 0xbe0322bf3e0d0863U,
  0xbe0322bf3de3a1bfU, 0x3da34d143e6d8763U, 0x3e059c28bd8a8efaU, 0xbd0a8efa3dc5f0d3U,
  0x3e7ed942be283fe6U, 0x3e14749e3e059c28U, 0x3e349ef33c6d8763U, 0xbdb7185cbe5742b2U,
  0x3d3c0b2e3e081591U, 0x3ded8763bd63a1bfU, 0x3dc5f0d33e90be80U, 0x3d996770bd1e5a42U,
  0xbd996770be1be0d9U, 0xbe9d1d8d3e196770U, 0xbe0d0863be2ab94fU, 0xbdcfd677be1e5a42U,
  0xbd859c28bdd4c949U, 0x3cd9bc1b3d59bc1bU, 0xbd4fd6773e4d5d0eU, 0xbd283fe63e196770U,
  0xbd4fd677bd4fd677U, 0x3c1e5a42bdc5f0d3U, 0xbe524fe0be3c0b2eU, 0x3dc0fe003e32258aU,
  0x3d996770be845f73U, 0xbe45f0d33dc5f0d3U, 0x3b9e5a42bd32258aU, 0x3e0f81cc3de89491U,
  0x3e0a8efabe727a35U, 0xbe32258abb1e5a42U, 0x3d8a8efabe16ee07U, 0x3e437769be5c3584U,
  0xbe0f81ccbc6d8763U, 0xbda34d14bda83fe6U, 0xbd283fe6bdd9bc1bU, 0x3e4377693d776d07U,
  0xbc5efa983ced8763U, 0x3d14a7103dbe760dU, 0xbd55b0273dbe760dU, 0xbe55b0273e4c65b6U,
  0xbdc31b45bdecea42U, 0xbe80e8e0be125474U, 0xbddefa983e308663U, 0xbe39d0d4bd0b5c9fU,
  0x3e0b5c9fbdb9d0d4U, 0x3de39fd13dd5b027U, 0xbbdefa983d684509U, 0x3e937dc2bdd10aefU,
  0xbd684509be639fd1U, 0xbd94a710bcdefa98U, 0x3e535d8bbe0464caU, 0x3d6845093e2296baU,
  0xbe20441e3d718f7aU, 0x3d14a7103e273bf2U, 0x3dcc65b6bdabe12bU, 0x3d994c493e39d0d4U,
  0x3c5efa983d9df181U, 0x3d82122e3e7d2c88U, 0xbc39d0d43e14a710U, 0xbd1df1813d308663U,
  0x3dc31b45be614d35U, 0x3d5efa983decea42U, 0x3d02122ebe194c49U, 0x3ca73bf2be20441eU,
  0x3dc7c07ebdd10aefU, 0xbd8b5c9fbdb9d0d4U, 0xbe352b9cbd02122eU, 0x3e5a5560bd4c65b6U,
  0x3d55b0273db52b9cU, 0x3ddefa983d02122eU, 0x3e2e33c7bbdefa98U, 0x3da296ba3da73bf2U,
  0x3d9001d8bdb08663U, 0xbd86b767bc39d0d4U, 0xbc39d0d4be5a5560U, 0xbdc31b45bd82122eU,
  0x3dd5b027bdff7f24U, 0x3d9df1813e87e0b5U, 0xbe16f9ac3c82122eU, 0xbe273bf2be456de2U,
  0xbe614d35be194c49U, 0xbde845093e65f26dU, 0x3e194c49be0daf3bU, 0x3dd5b0273e456de2U,
  0xbcae2ac3be14a710U, 0x3e74ec23be7a5d79U, 0xbd98656b3d98656bU, 0xbcae2ac33e6750cbU,
  0x3da348173d881169U, 0xbc82a0133e61df75U, 0x3db39c19bd0d82bfU, 0xbddf26ca3c59b574U,
  0xbd649820be3bc61bU, 0xbe518b733da34817U, 0x3cae2ac3bd7a5d79U, 0x3cae2ac3be5f26caU,
  0x3dd9b5743cae2ac3U, 0xbe103b6a3e18656bU, 0x3e6cc222bd881169U, 0xbe8edf14bc2e2ac3U,
  0xbe2b72183c82a013U, 0x3e8d82bf3e339c19U, 0xbd2e2ac33db39c19U, 0x3d9dd6c1be1dd6c1U,
  0xbd82a013bd82a013U, 0xbd02a013bd43f01cU, 0xbd98656b3e3654c4U, 0xbe18656b3e413771U,
  0xbc98656b3e0558beU, 0xbe6750cbbe3e7ec6U, 0xbdea0976be6f7acdU, 0xbe92f4153def7acdU,
  0xbe0811693d9dd6c1U, 0xbb2e2ac33e518b73U, 0xbd43f01cbdc96172U, 0xbdb90d70be8143bdU,
  0xbd7a5d793cae2ac3U, 0xbe5c6e1fbe2600c2U, 0xbe3654c43e496172U, 0x3d881169be83fc68U,
  0xbe4c1a1dbd2e2ac3U, 0xbdf4ec23bd59b574U, 0xbe6a0976bc02a013U, 0x3bae2ac3bd881169U,
  0x3e390d70be18656bU, 0xbdea09763e12f415U, 0x3d8d82bfbcc3f01cU, 0xbe2600c23e8558beU,
  0xbd881169bd59b574U, 0xbeacce6ebdced2c8U, 0x3d9dd6c13def7acdU, 0x3e54441eU,
  0xbd3e873dbdae2ac3U, 0x3e5fdee8be1f9143U, 0x3db5007a3b186c31U, 0x3be4a2493dc80e00U,
  0x3d64a2493ddb1b86U, 0xbe3c258cbe329ec9U, 0x3e1d2f923d8a220cU, 0x3d2b79b73cbe873dU,
  0x3d8a220cbe1f9143U, 0x3d480e00bd8a220cU, 0x3e5194c3be37622bU, 0x3d3e873d3e291806U,
  0xbe708abd3dd194c3U, 0xbe39c3db3cbe873dU, 0xbc986c313e21f2f4U, 0xbdb03d183e480e00U,
  0x3d6e290c3e5fdee8U, 0xbdee290cbe1f9143U, 0xbe72ec6e3dc80e00U, 0xbc3e873d3e2ddb68U,
  0xbdb03d183b186c31U, 0xbc855eab3dd194c3U, 0xbd6e290c3d6e290cU, 0xbd055eabbe1acde2U,
  0x3d93a8cf3dab79b7U, 0x3e5d7d37bd5b1b86U, 0x3e13a8cf3d8ee56eU, 0x3dc80e00bdc80e00U,
  0xbd3e873dbde4a249U, 0xbdf2ec6ebe973b58U, 0x3c3e873dbcd194c3U, 0x3b986c31bb186c31U,
  0xbd986c313dee290cU, 0x3db9c3dbbdab79b7U, 0x3dab79b7bdb03d18U, 0xbe87c05bbd3e873dU,
  0x3d0ee56e3e35007aU, 0x3e2454a5bd6e290cU, 0xbda6b6553d3e873dU, 0xbe53f674bd6e290cU,
  0xbbe4a249be1f9143U, 0x3e0ee56e3c64a249U, 0x3cab79b7bd986c31U, 0xbda1f2f43dd65825U,
  0xbe6965abbd21f2f4U, 0xbe2454a5be0a220cU, 0xbe5fdee83e07c05bU, 0x3e3e873d3c64a249U,
  0xbd1545dc3e37622bU, 0x3d7fe5793e1d4508U, 0xbe5a94023e029d21U, 0x3dbfec1bbe7a90b2U,
  0xbe42967fbd8a9c4cU, 0xbdca95ab3d1545dcU, 0x3dba97533e1a9aa4U, 0xbcd53f3bbe3fec1bU,
  0xbe0a9c4c3e0d46b0U, 0xbe0ff114be2d4360U, 0xbd35428b3dffe579U, 0xbc7fe579bd5fe8caU,
  0xbdbfec1bbe07f1e9U, 0xbdca95ab3e054785U, 0x3ea7ee98be4a95abU, 0xbdea925a3e9fef6cU,
  0xbe2299d03d2a98fcU, 0x3d9a9aa4bda54434U, 0xbea3ef02be4d400fU, 0xbe029d213ea1449eU,
  0x3d9fef6c3d9fef6cU, 0xbdafedc3bd9fef6cU, 0xbe054785bd1fef6cU, 0x3bffe579be07f1e9U,
  0xbd7fe579bd1fef6cU, 0xbd2a98fcbc7fe579U, 0x3d9fef6cbe1545dcU, 0x3e47eb473d9a9aa4U,
  0x3dda94023dbfec1bU, 0x3cbfec1b3d753beaU, 0x3d2a98fcbe729186U, 0x3e3a9753be5a9402U,
  0xbe67e7f63d3fec1bU, 0x3dbfec1bbe054785U, 0xbe0d46b03e6d3cbeU, 0xbe42967fbe9fef6cU,
  0xbe929b78be83f253U, 0x3cffe579bdd53f3bU, 0x3db5428b3d9545dcU, 0xbd553f3b3dbfec1bU,
  0x3c2a98fcbe8e9be2U, 0xbe07f1e9be47eb47U, 0x3e07f1e93e329827U, 0x3bffe579be0a9c4cU,
  0x3d553f3bbdb5428bU, 0x3d753beabe17f040U, 0xbe3d41b7bd854785U, 0x3dafedc3bea943caU,
  0xbe00d57b3defe722U, 0x3dbeac973ea39e7bU, 0x3daa0f8dbdd349a0U, 0xbe92dee3bdaa0f8dU,
  0x3dc8fb1c3e00d57bU, 0x3c24e84bbddd9825U, 0xbe8f01713c24e84bU, 0x3d5870e33d24e84bU,
  0x3d2f36d0be9428b4U, 0x3cf75c713e957284U, 0xbc4e225e3e7c83b3U, 0x3bf75c71bba4e84bU,
  0x3d24e84bbd104b42U, 0xbe904b42bd6d0decU, 0xbded0decbcf75c71U, 0x3d1a99c63ce2bf67U,
  0xbd1a99c63e3c18f6U, 0xbce2bf67be0db7a1U, 0xbe00d57bbd8b23ffU, 0xbe5d9825bdd870e3U,
  0xbde7e6aa3e03691cU, 0x3ce2bf673e2ca32fU, 0xbd775c713d8b23ffU, 0x3bf75c713ba4e84bU,
  0x3e67e6aabe980625U, 0xbe0db7a13e5349a0U, 0xbd8b23ffbe6fa18dU, 0xbd775c71be36f1b3U,
  0xbdd349a03da4e84bU, 0xbd904b423ba4e84bU, 0x3e74c8d0bded0decU, 0xbdb45e12bded0decU,
  0xbe1d2d683dbeac97U, 0xbc904b42bba4e84bU, 0xbd1a99c63e48fb1cU, 0x3dc3d3d9bda4e84bU,
  0xbe2254aabcb98555U, 0xbe9428b4bc4e225eU, 0x3df75c71be2ca32fU, 0xbd43d3d9bd62bf67U,
  0xbde7e6aabcf75c71U, 0xbe0db7a13d9fc109U, 0x3e1fc109bd24e84bU, 0xbdf75c713c904b42U,
  0x3d957284bdb45e12U, 0xbddd9825be821f4bU, 0x3d9572843e5870e3U, 0xbe24e84b3d24e84bU,
  0x3e8006f83d398555U, 0x3e88fd38be0a44f7U, 0x3e3d7af4bd385bf5U, 0xbc23dff6be59a573U,
  0x3e333cf53d8525f8U, 0x3cf5cff13d9ec0f6U, 0xbe0f63f7bcb85bf5U, 0xbe6b91f13da8fef6U,
  0x3dc299f4bdfaeef0U, 0xbdae1df5be2b8e75U, 0xbe90abb73da3dff6U, 0x3e1482f7bc4cd7f3U,
  0x3de672f23d19a1f6U, 0xbda8fef6bd385bf5U, 0xbd19a1f63e0525f8U, 0x3e8525f83c75cff1U,
  0x3e4a4873be400a74U, 0xbe5ec4723cb85bf5U, 0x3c8f63f73cccd7f3U, 0xbe029678bcb85bf5U,
  0x3ea29836bd75cff1U, 0x3e1482f7bd75cff1U, 0x3d8f63f7bd6153f2U, 0xbd9482f73e734071U,
  0x3e333cf5be866db8U, 0xbdd715f33dd715f3U, 0xbe333cf5bdae1df5U, 0x3db33cf53ca3dff6U,
  0xbd5715f33da3dff6U, 0x3cb85bf5bdc299f4U, 0x3d5715f3bdfaeef0U, 0xbdb33cf5be4299f4U,
  0xbd8f63f7bd8006f8U, 0xbe59a5733e0a44f7U, 0xbd4cd7f33ddc34f2U, 0x3e5715f3be1ec0f6U,
  0xbc75cff1bdb33cf5U, 0x3dd715f3be4cd7f3U, 0xbd99a1f6bdeb91f1U, 0x3e7d7e703e4299f4U,
  0xbe1ec0f63e0a44f7U, 0x3ce153f23dbd7af4U, 0xbd9ec0f6bca3dff6U, 0xbca3dff6be59a573U,
  0xbe4f6773bd6b91f1U, 0x3e3d7af4be6b91f1U, 0xbd6b91f13e0a44f7U, 0x3d6153f2be0a44f7U,
  0x3c8b7800be6e2171U, 0x3c473db73db84c49U, 0xbcb351243d8181b7U, 0xbe3ac9db3e867cdbU,
  0xbc1f64923e4eb66dU, 0xbcb35124be156e49U, 0x3e335124bda95adbU, 0xbe60256d3d867cdbU,
  0x3e26dd493e0181b7U, 0xbe8df592bc473db7U, 0xbd3d476d3e245fb7U, 0xbd156e49bd790d24U,
  0xbde520923d5b2a49U, 0x3cc73db73e9a696dU, 0x3e335124bcdb2a49U, 0xbd867cdbbe92f0b7U,
  0x3e08fa6dbd9f6492U, 0x3e907324be35ceb7U, 0xbd0181b7bb9f6492U, 0x3d652092be60256dU,
  0x3cef16dbbd513400U, 0xbe1a696dbe96ad12U, 0xbb1f64923d3d476dU, 0x3df412003e60256dU,
  0xbb1f64923e91b1edU, 0x3d0b7800bdcc38dbU, 0x3cb35124bde0256dU, 0x3e49bb49bcdb2a49U,
  0xbc1f64923e44c024U, 0xbe9e25c93e424292U, 0xbd1f6492be21e224U, 0xbcc73db73c473db7U,
  0x3e97ebdb3d9f6492U, 0x3d156e49be295adbU, 0x3e30d392bdf90d24U, 0x3e8b7800bc6f16dbU,
  0xbe2bd86d3e295adbU, 0xbe067cdb3e067cdbU, 0x3d9f6492bdc73db7U, 0x3c6f16db3e12f0b7U,
  0x3cdb2a49be17ebdbU, 0xbe768f92be992aa4U, 0xbe91b1ed3e7e0849U, 0xbd0181b7be87bba4U,
  0xbe83ff49be1f6492U, 0x3df41200bd473db7U, 0xbe6a1bb63e21e224U, 0x3e6a1bb6bb9f6492U,
  0x3dfa2206bcc73db7U, 0x3ea83e813e1dd26bU, 0xbd624f8b3d1ad81cU, 0x3da6c159bd7a2206U,
  0x3e17ddcdbd3e93d4U, 0x3e26c159bda6c159U, 0x3e26c1593e8d71b7U, 0xbc3e93d4bd3e93d4U,
  0x3d7a22063cee38c8U, 0xbe4a7d113d624f8bU, 0x3c6e38c8bcd6664eU, 0x3c8eeedf3e81887aU,
  0x3d56664e3d4a7d11U, 0x3d56664e3e0bf48fU, 0xbebd16ac3dca7d11U, 0xbd0305a13cee38c8U,
  0xbdc48872be14e37dU, 0x3c0eeedf3eab38d0U, 0xbd4a7d11bdd6664eU, 0x3d3e93d4be0bf48fU,
  0x3d26c1593e418e23U, 0xbe26c1593e0305a1U, 0xbe56664e3db2aa96U, 0x3e713318be0305a1U,
  0x3e1dd26bbdacb5f8U, 0xbde24f8b3bbe93d4U, 0x3d8305a13dd6664eU, 0xbe8eeedf3d624f8bU,
  0xbe23c70abe7727b6U, 0xbde24f8bbd0305a1U, 0xbd3e93d4bd0305a1U, 0x3c3e93d43ea249e2U,
  0xbe26c1593e59609dU, 0xbcee38c8bc3e93d4U, 0xbe59609dbe8482c9U, 0x3d56664e3e1ad81cU,
  0xbc0eeedfbe0eeedfU, 0x3cee38c8be26c159U, 0xbc0eeedf3c6e38c8U, 0x3d94e37dbb3e93d4U,
  0xbd94e37dbddc5aedU, 0x3d8eeedfbd0eeedfU, 0xbe17ddcd3d0305a1U, 0x3e26c1593e08fa40U,
  0xbd0eeedfbdb89f35U, 0xbda6c1593e4782c1U, 0x3c0eeedfbd6e38c8U, 0x3dacb5f83e000b52U,
  0xbe1a42ddbcd6664eU, 0xbcfb0052bd708af9U, 0x3dac90383d9ce033U, 0x3de0daf4be6deda3U,
  0xbba7558cbe85582bU, 0x3e0d302ebdfb0052U, 0xbd27558c3e126adaU, 0xbd6615a0be24b836U,
  0x3de615a03d708af9U, 0xbd1ce033bd82bad5U, 0xbe1a42ddbe05582bU, 0xbe816c2abd6615a0U,
  0xbdd12aef3e53c845U, 0x3cbc403d3dbc403dU, 0x3e1a42ddbd7b0052U, 0xbba7558c3e6615a0U,
  0xbe5ba0473e8be183U, 0x3bfb00523e6b504cU, 0xbe8d302e3d8d302eU, 0xbd46b596be6deda3U,
  0xbd1ce0333e126adaU, 0xbdbc403dbdf08af9U, 0xbe6615a03c512aefU, 0x3e87f582bd5ba047U,
  0x3e4e8d98be85582bU, 0x3c7b0052bd46b596U, 0x3d31cae4bd8d302eU, 0x3de615a0be4e8d98U,
  0x3d31cae4bdeb504cU, 0xbc926ada3e75c5a5U, 0xbe1ce033bd7b0052U, 0x3d7b0052bd82bad5U,
  0x3d512aef3e31cae4U, 0x3e441840bce615a0U, 0xbe7862fb3d7b0052U, 0xbe5ba0473dac9038U,
  0x3e5ba0473d708af9U, 0xbd926ada3cbc403dU, 0x3d46b596bd926adaU, 0x3d7b00523ba7558cU,
  0x3e27558c3e512aefU, 0xbe4418403e417aeaU, 0xbe221adfbd31cae4U, 0xbe3edd933d926adaU,
  0x3dcbf0423d97a587U, 0xbea606e13e1ce033U, 0xbd126ada3df08af9U, 0x3b27558cbdcbf042U,
  0xbda19bb43d8d302eU, 0xbe193fc9be993fc9U, 0x3e16767bbeb0eee2U, 0x3e13ad2dbe9aa471U,
  0x3e1ed2663c85bea7U, 0xbe8f7f383ea72e50U, 0x3c85bea73dc89dfaU, 0x3e85bea73dd955cfU,
  0xbe6a0da33e568c80U, 0xbdbd78c1be272e50U, 0x3c325389bd53c332U, 0xbda19bb43c05bea7U,
  0xbdc89dfa3e430b5eU, 0xbdbd78c1bb325389U, 0x3d96767bbc325389U, 0xbe0b51433e8190b1U,
  0xbc9c09183d5ee86bU, 0x3df532dc3cb25389U, 0x3d272e50bda72e50U, 0xbe29f79ebda19bb4U,
  0xbde47b073e87234eU, 0xbdbd78c13d6a0da3U, 0x3cf532dcbe3aaf73U, 0x3e1ed266bd85bea7U,
  0xbd96767bbe6cd6f2U, 0x3d9c09183c325389U, 0xbde47b07bdc30b5eU, 0xbb325389bc85bea7U,
  0xbe05bea73defa040U, 0x3e0b5143be8b5143U, 0xbe6fa040bd489dfaU, 0x3dfac5783e802c0aU,
  0xbd802c0abd325389U, 0xbe29f79ebe0e1a91U, 0xbe351cd7be0887f5U, 0xbddee86bbe489dfaU,
  0xbcc89dfabd96767bU, 0x3e77fc2a3e8b5143U, 0xbe2465023d10e3dfU, 0xbe1c0918bdefa040U,
  0xbe40420f3e0e1a91U, 0xbd489dfabe16767bU, 0xbd53c3323d10e3dfU, 0xbe1ed2663e05bea7U,
  0xbcf532dcbe9ed266U, 0x3de47b073d802c0aU, 0xbe05bea73defa040U, 0xbe10e3df3e0887f5U,
  0xbe404de4be3d78c1U, 0xbd5ef6223b325e82U, 0xbe404de43e194938U, 0xbda7389abc325e82U,
  0xbc9c12b2be404de4U, 0x3e167fbe3c05c6e1U, 0x3dbd846abe27389aU, 0x3d5ef6223e2ccb8eU,
  0xbe93b644be3d846aU, 0x3bb25e823e43175eU, 0x3d48aa52bcdef622U, 0x3e53d03a3d85c6e1U,
  0x3e43175ebd6a1c0bU, 0x3dfad4e7bd3d846aU, 0x3daccb8ebcf541f3U, 0xbd05c6e1bd05c6e1U,
  0x3e7541f3bdc8aa52U, 0xbe7ad4e7bcf541f3U, 0xbc325e823daccb8eU, 0xbe8033edbe727879U,
  0x3e10eccabd27389aU, 0xbd27389a3e53d03aU, 0xbe727879bc9c12b2U, 0xbc325e82bcc8aa52U,
  0x3c85c6e1bd48aa52U, 0xbcb25e823d90eccaU, 0x3c05c6e13d8b59d6U, 0xbe9c12b2be5ef622U,
  0xbdb25e823e994938U, 0x3b325e823d8b59d6U, 0xbe0e2350be3abaf0U, 0xbdd9632ebe5699b4U,
  0xbe08905bbb325e82U, 0x3e88905b3e167fbeU, 0xbc05c6e13dd9632eU, 0x3e246f20be7ad4e7U,
  0xbd53d03a3c85c6e1U, 0xbe3abaf03eb0f9c5U, 0xbe45e0d83e8cbe93U, 0x3d3d846a3dc8aa52U,
  0xbd6a1c0b3db25e82U, 0xbdc8aa52be6faeffU, 0xbde489163c9c12b2U, 0x3cdef622be5106c0U,
  0xbde489163e0033edU, 0x3e8e23503d6a1c0bU, 0xbde48916be404de4U, 0x3bb25e82bda1a5a6U,
  0xbdc42a14be404de4U, 0x3e01b8bbbd4a7e05U, 0xbe215c6c3dd725e5U, 0x3ec8e909be5a4fddU,
  0x3d312e443d248664U, 0xbcfd1d86be97de83U, 0xbdea21b5be5a4fddU, 0xbd7075a53e8677afU,
  0xbd3dd624be2e044cU, 0xbe8677afbe17de83U, 0x3e53fbed3d5725e5U, 0x3e6a21b53d0b36a3U,
  0x3dca7e05be53fbedU, 0xbe118a93be76c996U, 0xbe04e2b3bdb12e44U, 0x3c17de83bd84e2b3U,
  0x3e3aac2c3e47540dU, 0x3df6c9963db78234U, 0xbd7d1d863dd0d1f5U, 0x3e312e44be1e3274U,
  0xbd0b36a33d84e2b3U, 0x3dd725e5be14b48bU, 0x3d7075a5be215c6cU, 0x3e312e44bdea21b5U,
  0xbd0b36a3bce3cdc5U, 0x3cca7e053c17de83U, 0x3e312e44be76c996U, 0xbe2e044c3e4a7e05U,
  0x3e50d1f5bdb12e44U, 0xbdbdd6243e3dd624U, 0xbc4a7e05bdc42a14U, 0x3e50d1f5bdb78234U,
  0xbcb12e443dea21b5U, 0xbd2486643dd0d1f5U, 0xbe739f9ebe14b48bU, 0xbcb12e443e5a4fddU,
  0x3da486643dca7e05U, 0xbc97de83be834db7U, 0xbe7075a53d312e44U, 0x3daada543cb12e44U,
  0x3d63cdc5be63cdc5U, 0xbd97de83be248664U, 0xbe8677af3d4a7e05U, 0x3d7075a5bdc42a14U,
  0xbe04e2b3be17de83U, 0x3dca7e053dea21b5U, 0x3e0b36a3bd4a7e05U, 0x3e17de83bddd79d5U,
  0x3e70896c3d0b36a3U, 0x3d1b7fa0bd91c7a6U, 0xbe66d172bdc73b85U, 0xbe49a984bc1b7fa0U,
  0xbe70896c3d5f8776U, 0xbe5aab793cc25f88U, 0xbd11c7a6bd72f76aU, 0x3e1ded9f3d38a78eU,
  0x3e05a1ae3daa1397U, 0x3e315d93bd2eef94U, 0x3d5f8776bd91c7a6U, 0xbd11c7a6be49a984U,
  0x3e86d8adbe4e8581U, 0x3dee1b6d3b9b7fa0U, 0x3d25379a3d72f76aU, 0xbcfcaf643dee1b6dU,
  0x3c425f88be1435a5U, 0x3e16a3a3be38a78eU, 0xbe315d93be7a4166U, 0x3e080fac3d55cf7cU,
  0x3e16a3a3be5aab79U, 0xbdf2f76abe9435a5U, 0xbd080facbdb8a78eU, 0xbdd0f37fbdaeef94U,
  0xbe6bad6fbdf7d367U, 0xbd2eef943dc73b85U, 0xbe9a48a1bd91c7a6U, 0xbe0ceba9be363990U,
  0xbde93f703d91c7a6U, 0xbe66d1723c425f88U, 0x3d72f76abe2a1397U, 0x3e22c99cbe8a7dabU,
  0x3cc25f883e205b9dU, 0xbd8333afbe49a984U, 0xbe44cd873e33cb91U, 0xbe1ded9f3d8333afU,
  0xbe4c1782be5d1978U, 0x3de93f703e3ff18aU, 0xbe25379a3e9090a7U, 0x3e97daa2be61f575U,
  0xbdf2f76abdcc1782U, 0x3d38a78e3dee1b6dU, 0x3e50f37f3c425f88U, 0x3e363990bdaeef94U,
  0xbd4c1782be49a984U, 0x3e55cf7cbd9b7fa0U, 0x3d080facbbe93f70U, 0x3dfcaf64bdcc1782U,
  0x3d1db64b3c693f70U, 0x3dcac5cfbe1db64bU, 0xbe6c9171bd818c99U, 0xbd4ac5cf3e208743U,
  0x3e1db64bbd12726aU, 0xbccac5cf3d4ac5cfU, 0x3e80241d3dbf81eeU, 0xbe845d913e1db64bU,
  0x3c343e0d3e1ae553U, 0x3e2e9c1cbe5baba0U, 0x3dd609afbde6ef81U, 0xbe28fa2cbe5baba0U,
  0x3e2087433e954363U, 0x3dbf81ee3e4d96c7U, 0xbda3583cbe154363U, 0xbeb2d591be80241dU,
  0xbe82f515be0cd07aU, 0xbda3583c3ddbaba0U, 0x3df7d552bde6ef81U, 0xbe997cd7bdcac5cfU,
  0x3e4523debdd067bfU, 0xbe045d91bd8cd07aU, 0xbde14d90bd12726aU, 0xbd818c993d614d90U,
  0x3c9db64b3e28fa2cU, 0x3e3cb0f53d8cd07aU, 0x3de6ef813e2bcb24U, 0xbdd067bfbdf23361U,
  0x3cb43e0d3d92726aU, 0x3d614d903e154363U, 0xbe66ef81be614d90U, 0x3e072e8abd072e8aU,
  0x3e4ac5cfbd1db64bU, 0x3e7233613ce14d90U, 0xbdb9dffdbc072e8aU, 0xbe4523debda3583cU,
  0x3e09ff823dbf81eeU, 0xbdf23361be58daa8U, 0xbe5067bfbd77d552U, 0x3d5609af3bb43e0dU,
  0xbd872e8a3d9db64bU, 0x3dae9c1cbe2bcb24U, 0xbe1db64b3e5338b7U, 0x3ce14d903e370f05U,
  0x3dc523de3d818c99U, 0x3d1db64b3b343e0dU, 0xbc072e8abc872e8aU, 0xbd4ac5cfbe9c4dcfU,
  0xbe0400f23d9db64bU, 0x3c787a41be23103bU, 0xbdbf88e7bdbf88e7U, 0x3ba5a6d63e10f1fbU,
  0x3e787a413e138897U, 0x3d10f1fbbe9f2e52U, 0xbdaad40d3ba5a6d6U, 0x3d06978ebe5c0194U,
  0x3ba5a6d63e421f83U, 0x3e283d713d25a6d6U, 0x3e23103bbe3f88e7U, 0xbe44b61ebdc9e355U,
  0xbcba5bb13e82b5a5U, 0xbc4f108bbe6e1fd4U, 0x3d25a6d6bdbf88e7U, 0xbda5a6d63d1b4c69U,
  0xbce3c5663b25a6d6U, 0xbda0799f3e3297dfU, 0x3d25a6d6bde8f29dU, 0x3e8e5b60be5e982fU,
  0x3ba5a6d6bbf87a41U, 0x3e938897bccf108bU, 0xbdd96af9be300143U, 0xbd06978ebcf87a41U,
  0x3de3c5663e82b5a5U, 0xbe10f1fbbdc9e355U, 0x3e0e5b60be0400f2U, 0xbe4f108bbe9f2e52U,
  0x3ccf108bbe421f83U, 0xbe51a727be90f1fbU, 0xbdf34d0abe18b5cdU, 0xbda5a6d6bdaad40dU,
  0xbe161f32bd4f108bU, 0x3ea45b883e6b8938U, 0x3e161f32bc25a6d6U, 0xbda0799f3d3a5bb1U,
  0xbdd96af93e016a57U, 0xbe68f29d3e0e5b60U, 0xbd44b61e3e0bc4c4U, 0xbe283d71bd63c566U,
  0x3dc4b61ebd816a57U, 0xbe092e29bde8f29dU, 0x3d6e1fd43dde982fU, 0x3e161f323e283d71U,
  0xbdba5bb13c90f1fbU, 0x3dfda7783e612ecbU, 0xbe25a6d6bba5a6d6U, 0x3e8e5b603e87e2dbU,
  0x3dde982fU, 0x0U, 0x0U, 0x0U,
  0x0U, 0x0U, 0x0U, 0x0U,
  0x0U, 0x0U, 0x0U, 0x0U,
  0x0U, 0x0U, 0x0U, 0x0U,
  0x3e51dc8c00000000U, 0x3da92462be0cf3a7U, 0xbe006c373dbbef89U, 0xbb4876f9be9fbeceU,
  0xbd09d1cb3da2e0aaU, 0x3e4ebab03daf681aU, 0xbc7a94b73ce185d8U, 0x3cc876f93e1fbeceU,
  0x3dc233413c16593aU, 0xbe1c9cf2be101583U, 0xbd22e0aa3d6e0d47U, 0x3e006c37be3bef89U,
  0xbd901583be3289f5U, 0xbe67c98f3e8b62b9U, 0xbda2e0aabe901583U, 0x3e2c463e3d4876f9U,
  0x3eba5e9b3e51dc8cU, 0x3d16593abd7a94b7U, 0xbdfa94b7be51dc8cU, 0x3d6e0d473d3bef89U,
  0x3d09d1cb3e7450ffU, 0x3e3289f5U, 0xbcfa94b7bc16593aU, 0xbdbbef893d6185d8U,
  0xbe54fe68bd2f681aU, 0xbce185d83d09d1cbU, 0x3e006c373e51dc8cU, 0xbb4876f9bd3bef89U,
  0xbe3289f53d54fe68U, 0xbdd4fe68bd89d1cbU, 0xbe09d1cbbec6e60bU, 0xbb4876f93e8b62b9U,
  0xbd16593a3e2f681aU, 0xbd96593a3d3bef89U, 0x3d2f681a3e2f681aU, 0xbdc876f93dfa94b7U,
  0xbe09d1cbbd838e13U, 0x3c96593abe3bef89U, 0x3da2e0aa3c7a94b7U, 0x3d3bef893e006c37U,
  0xbdfa94b7bc16593aU, 0xbbc876f93eadd72cU, 0xbe94c84dbe7450ffU, 0xbe38cdad3de185d8U,
  0x3d901583be260286U, 0xbd09d1cb3da92462U, 0x3e101583bd2f681aU, 0xbe9e2de0bd3bef89U,
  0xbd5a82a7be2f681aU, 0x3e0b0d533db7bf53U, 0xbd6471523dc6a552U, 0xbe75d2fcbe558b52U,
  0x3d011ea93d8b0d53U, 0x3e8d88fe3e4e1852U, 0xbe9004a8be1777a8U, 0xbe19f353bd9eeaa8U,
  0xbe5a82a73d0b0d53U, 0xbe839a533d5093fdU, 0x3e9dacd3be265da8U, 0xbb1eeaa83e0d88feU,
  0xbe5a82a73e3cb6a8U, 0x3e8615febd647152U, 0xbe4b9ca83d32c7fdU, 0xbd784ea73e216653U,
  0xbe66ecfd3d784ea7U, 0x3d811ea93e66ecfdU, 0x3e37bf53be039a53U, 0xbe011ea93d5093fdU,
  0x3e811ea9be3f3252U, 0xbd811ea9be70dba7U, 0x3dd093fdbd14fbfeU, 0xbd0b0d53bdb7bf53U,
  0x3e28d953bda8d953U, 0x3d1eeaa83d5a82a7U, 0xbe647152bde968a7U, 0x3c1eeaa83d94fbfeU,
  0xbda8d9533cee5ffcU, 0xbe94fbfe3c46a552U, 0xbe5806fd3db2c7fdU, 0x3d6471523dc6a552U,
  0x3d5093fd3e9b3128U, 0x3cc6a552be32c7fdU, 0xbc6e5ffcbe7aca52U, 0xbe8c4b29be2b54fdU,
  0x3e3f32523e3a3afdU, 0xbe2166533cda82a7U, 0xbd6471523dee5ffcU, 0x3dd58b52be0615feU,
  0xbe46a552be28d953U, 0x3e265da8be46a552U, 0x3e0d88fe3e6e5ffcU, 0xbc9eeaa83e2dd0a8U,
  0xbde968a7be8ec6d3U, 0xbe66ecfdbe1c6efeU, 0xbe1c6efe3e32c7fdU, 0xbe94fbfe3e265da8U,
  0x3de8a4373e0d88feU, 0xbe1a405cbc21d669U, 0x3e06058fbe5e86d0U, 0x3db61136bea092bcU,
  0xbdf2c19d3c21d669U, 0xbd17b902be9022f6U, 0x3e037e353cf2c19dU, 0xbe06058fbd8d9b9cU,
  0xbcb61136be0d9b9cU, 0xbd402e9d3e42b5f6U, 0x3d4a4c033e8b1442U, 0xbe5bff77be4a4c03U,
  0x3dde86d03e93edfcU, 0xbd037e353d0d9b9cU, 0xbcb61136bdb10283U, 0x3c72c19dbc72c19dU,
  0x3df2c19dbcca4c03U, 0x3d402e9dbd0d9b9cU, 0xbe21d6693e361136U, 0xbe5e86d0bdd9781dU,
  0x3e17b9023e06058fU, 0x3e088ce9bd68a437U, 0xbdcf5ab7be7f665eU, 0x3e245dc33df2c19dU,
  0xbd2bf3d03d68a437U, 0xbdd9781d3e4a4c03U, 0x3e703a443e17b902U, 0xbd92aa4fbba1d669U,
  0xbe26e51c3db10283U, 0xbc8d9b9c3e3da743U, 0x3e9f4f0f3e2e7b29U, 0xbe1531a93bf2c19dU,
  0x3e0d9b9c3df7d051U, 0x3d0d9b9c00000000U, 0x3e21d669be9531a9U, 0x3dabf3d0bd54696aU,
  0xbe1cc7b63da6e51cU, 0xbd4a4c03bdf7d051U, 0xbdc02e9dbca1d669U, 0x3de39584bda1d669U,
  0xbe47c4aabd837e35U, 0x3d9cc7b6bd0d9b9cU, 0x3b21d6693dabf3d0U, 0x3e87493c3e93edfcU,
  0x3e56f0c33e0b1442U, 0xbe17b902bdb10283U, 0x3d72c19dbdcf5ab7U, 0xbc21d6693e0d9b9cU,
  0xbcaca78ebd68a437U, 0x3b2ca78ebe06e2e7U, 0x3e526c353cd7d171U, 0x3c017daa3e654e88U,
  0xbe7ae37a3e9dd128U, 0x3ced66633e0efac1U, 0xbda1dd15be377207U, 0xbe043048bded6663U,
  0xbd3772073d423c7fU, 0x3d91ad603e274251U, 0xbd21dd153d377207U, 0xbdb77207be2ca78eU,
  0x3e6d6663bea89ba0U, 0xbe91ad603dd7d171U, 0xbe6ab3c5be1c77d8U, 0xbced6663bd6d6663U,
  0xbe4a545a3d9c77d8U, 0x3dd7d171be654e88U, 0x3d9c77d8bd629beaU, 0xbdbcd7433d423c7fU,
  0xbe858998bdf830dcU, 0x3e8589983e21dd15U, 0xbbaca78ebd21dd15U, 0x3d4d06f8bcaca78eU,
  0xbc57d1713e629beaU, 0xbd377207bcc23c7fU, 0xbdaca78e3c57d171U, 0x3dc23c7f3db77207U,
  0xbdd7d1713d97129cU, 0x3e757e3dbe19c53aU, 0x3d017daabe043048U, 0x3e57d1713e06e2e7U,
  0xbdb20ccabe7d9618U, 0x3caca78e3e629beaU, 0xbe145ffe3e905410U, 0xbe526c35bdf2cb9fU,
  0xbd2ca78e3c57d171U, 0xbcc23c7f3c817daaU, 0x3e3f89e1bd86e2e7U, 0x3e5fe94c3e377207U,
  0x3e06e2e7bbaca78eU, 0x3b2ca78ebc817daaU, 0x3db77207be3a24a5U, 0x3e3a24a5beab4e3fU,
  0xbddd36ae3d017daaU, 0x3d17129c3c57d171U, 0xbd017daabc017daaU, 0xbcc23c7f3d6d6663U,
  0x3e9372603e6ab3c5U, 0xbc80ae4a3e491054U, 0xbe668d9a3dc66208U, 0xbe53c985be613102U,
  0x3d5677d13d2b930dU, 0xbe060ae2be98cef8U, 0xbdebea32be8cbea1U, 0x3e59261d3d613102U,
  0xbd90c4133e41056fU, 0xbd9620ac3eaa3be7U, 0xbd41056f3e4bbea0U, 0x3e18cef8be1e2b90U,
  0x3e53c9853debea32U, 0xbe4e6cecbc5677d1U, 0xbd9b7d44bc80ae4aU, 0x3dd677d13e8f6cedU,
  0x3e137260bcc1056fU, 0xbcd677d13de68d9aU, 0xbd80ae4abe4bbea0U, 0xbd364c3ebe491054U,
  0xbe8a1055bdebea32U, 0x3d9b7d44bda63675U, 0xbe8b677b3d80ae4aU, 0xbe41056fbc9620acU,
  0xbe9f82b6bbab930dU, 0xbcebea32bd8b677bU, 0x3cc1056fbd90c413U, 0x3ea0d9dd3d364c3eU,
  0x3ddbd46900000000U, 0x3dc1056f3d90c413U, 0xbe511b38bdcbbea0U, 0xbdc662083dd677d1U,
  0x3e7146cb3d41056fU, 0xbd0b677b3e8f6cedU, 0xbe18cef83e238829U, 0x3db0efa63bab930dU,
  0x3d80ae4abd9620acU, 0xbe9620acbdcbbea0U, 0xbea8e4c13e035c96U, 0x3e4e6cecbd1620acU,
  0x3e28e4c13c00ae4aU, 0xbe263675bd90c413U, 0x3da63675be63df4eU, 0x3dfbfffc3db0efa6U,
  0xbe238829bdd11b38U, 0xbe41056f3de13102U, 0xbd8b677b3d613102U, 0x3e94c986be38fa8aU,
  0xbe0aa8fa3ddbd469U, 0xbe55c481U, 0xbcfe35cabca1c523U, 0xbe01fe6a3db8e14dU,
  0xbd7e35cabe0aa8faU, 0xbd84e1efbea336e6U, 0x3d84e1ef3d4ffd77U, 0x3bb8e14d3e758b3aU,
  0x3d38e14dbd907004U, 0xbd5b8b8b3eb76f8aU, 0xbe35fdc8bdece0abU, 0x3e8937373de719a0U,
  0x3b38e14dbe7b5245U, 0xbd38e14d3c0aa8faU, 0x3e24a8a93dad5338U, 0x3e615296be0aa8faU,
  0xbb38e14d3e1bfe19U, 0xbde719a0be38e14dU, 0xbe1ee19e3e4a366cU, 0x3dfe35ca3c6719a0U,
  0x3e35fdc8be0aa8faU, 0xbc0aa8fabe52e0fcU, 0xbdfe35cabe72a7b5U, 0x3d72a7b53c0aa8faU,
  0x3cb8e14d3d5b8b8bU, 0xbe278c2e3e2a6fb3U, 0x3d16370f3d446f62U, 0x3cb8e14dbe01fe6aU,
  0x3de719a03e1bfe19U, 0xbdece0ab3dad5338U, 0x3e16370fbe55c481U, 0xbe87c575bde15296U,
  0x3d8aa8fa3dfe35caU, 0xbcb8e14d3e107004U, 0x3c38e14dbbb8e14dU, 0xbd5b8b8bbea78c2eU,
  0x3e6fc4303e81fe6aU, 0x3e0aa8fa3ccffd77U, 0xbe2d53383e135389U, 0xbda1c523be2a6fb3U,
  0xbd8aa8fa3d38e14dU, 0xbc6719a03e1ee19eU, 0xbd8aa8fa3e01fe6aU, 0xbea053613dbea857U,
  0xbdfe35cabe107004U, 0xbd907004bdb8e14dU, 0xbe6ce0ab3e0aa8faU, 0x3e4a366cbdb31a43U,
  0x3e0570eb3d9bfe19U, 0x3e0570ebbdf7d1b5U, 0xbd7176ffbc98810dU, 0x3df176ffbd8bcba1U,
  0x3dab912e3d0bcba1U, 0x3d253678beab912eU, 0xbce4c1933e44fc06U, 0xbc98810dbce4c193U,
  0x3e8d624e00000000U, 0x3db8469aU, 0x3dd1b172be4e8417U, 0xbe024390be35193fU,
  0x3e5b3982be1edbc3U, 0x3db8469abc4b56bcU, 0xbe0570ebbd0bcba1U, 0x3e51b172bdcb56bcU,
  0xbdd1b172bc98810dU, 0x3cb1ebe4bd4b56bcU, 0xbdbea150bd0bcba1U, 0xbbcb56bc3dcb56bcU,
  0xbd8bcba13c18810dU, 0xbe51b1723e122657U, 0xbe8bcba1bdc4fc06U, 0xbe122657be8bcba1U,
  0xbc98810d3d98810dU, 0x3e2863d3bdb8469aU, 0xbec9c00e3e35193fU, 0xbc4b56bcbd3ea150U,
  0xbda536783d3ea150U, 0xbe3b73f5be96ea5fU, 0xbb4b56bc3c98810dU, 0x3dfe2c6bbdf176ffU,
  0x3dfe2c6bbdfe2c6bU, 0xbda536783e5b3982U, 0x3e6b1c49be3ea150U, 0xbdf7d1b53e0bcba1U,
  0x3dab912e3da53678U, 0x3e089e463e3b73f5U, 0x3c98810d3df176ffU, 0x3c4b56bcbe44fc06U,
  0xbe9226573d9edbc3U, 0x3bcb56bc3e2ebe89U, 0x3e8d624e3e580c27U, 0x3dde66dd3e619438U,
  0x3d7e2c6bbe2ebe89U, 0x3e51b1723d64c193U, 0xbe5e66dd3ea863d3U, 0x3c4b56bc3e3b73f5U,
  0x3d9551da3db1ebe4U, 0xbe0fca153d7e6587U, 0xbda5e92c3e1551daU, 0xbbb0f8b7be4717ceU,
  0xbd8a424f3e28ad0eU, 0x3d9ad9a0bde2beaaU, 0x3dcc9f94bdb6807dU, 0x3cc717ce3d8a424fU,
  0xbe861c7bbe4f6376U, 0xbe0a424f3e1551daU, 0x3e8a424f3d684670U, 0x3de2beaa3e30f8b7U,
  0xbe4453ebbcc717ceU, 0xbda06166bcdd36e5U, 0xbda5e92cbdd7af1fU, 0x3e7355fcbdb6807dU,
  0x3d7355fcbd1ad9a0U, 0xbe96b3ccbe0fca15U, 0xbe6846703d30f8b7U, 0x3e04ba89bc04ba89U,
  0x3d04ba893d5d36e5U, 0x3e54eb3c3e93efe9U, 0xbcf355fc3d9ad9a0U, 0x3c30f8b7bd3c0842U,
  0xbe128df83ea1c357U, 0xbdfe65873da5e92cU, 0x3e877e6cbdc19008U, 0xbd0fca15be7619deU,
  0x3dcc9f94beaf96c6U, 0xbe81f6a63d684670U, 0xbd30f8b7be0fca15U, 0xbdf8ddc13cc717ceU,
  0xbe9551dabe928df8U, 0xbc04ba89bd0fca15U, 0xbd0fca153dd22759U, 0x3e394460be128df8U,
  0x3d1ad9a0be5a7302U, 0x3c5d36e5bd0fca15U, 0x3d0fca153e8fca15U, 0x3de846703dc19008U,
  0xbd7e6587be7355fcU, 0xbe7092193e232549U, 0xbd4717ce3dd7af1fU, 0xbe128df8bd84ba89U,
  0x3e33bc9abdc19008U, 0xbc30f8b7bddd36e5U, 0x3db6807d3d5d36e5U, 0x3cc717ce3de2beaaU,
  0x3e43647dbe7ba1a4U, 0x3e15e3e1be85d49bU, 0x3e05d49bbd36026dU, 0xbe8ddc3e3e2345f1U,
  0xbd807a2f3e0b2f08U, 0x3e36026dbb2b4d94U, 0x3e0327653dc611b3U, 0x3e832765bc807a2fU,
  0xbd60d5d2be3b5cdaU, 0xbd6b8aabbe0b2f08U, 0xbd8b2f08bd85d49bU, 0x3da5f3273d85d49bU,
  0xbdeb8aabbe2dfacaU, 0xbdab4d94bc007a2fU, 0x3d40b7463d2b4d94U, 0x3e25f3273e40b746U,
  0xbe2b4d94be847e00U, 0xbe5b7b65bdeb8aabU, 0x3e989118bda098bbU, 0xbe0b2f083ea345f1U,
  0xbd807a2fbe36026dU, 0x3e0327653d807a2fU, 0x3e0327653ddb7b65U, 0x3e5373c2be638308U,
  0xbe1deb843c2b4d94U, 0xbda5f327be05d49bU, 0xbe0ddc3ebd95e3e1U, 0xbcab4d94bea345f1U,
  0xbe2345f1bd4b6c20U, 0xbc807a2fbda5f327U, 0x3e807a2f3dc0b746U, 0xbdc611b3be2345f1U,
  0xbdd0c68cbe6b8aabU, 0x3c2b4d94be1336abU, 0xbcd620f93e989118U, 0x3d908975bd763f84U,
  0xbe28a05e3d007a2fU, 0xbe9f421fbceb8aabU, 0xbe38afa3be48bee9U, 0x3d40b746be25f327U,
  0x3da5f3273d8b2f08U, 0x3e6383083c5620f9U, 0xbe05d49bbea9f6f9U, 0x3bab4d94bddb7b65U,
  0x3e4611b3bd2b4d94U, 0x3e60d5d23e43647dU, 0x3c95e3e13cab4d94U, 0x3e6b8aab3c95e3e1U,
  0x3d2c0559be108975U, 0x3e2c05593d4e6cd1U, 0x3e4e6cd13e8272fdU, 0xbea36b7b3e099de1U,
  0x3d9ad19dbc099de1U, 0x3e514ac63da64970U, 0x3d2c0559bd655c77U, 0xbdc8b0e83dfc4c1cU,
  0x3e796e273d377d2cU, 0xbcfc4c1cbca08d86U, 0xbdfc4c1c3c655c77U, 0x3db77d2cbd899de1U,
  0xbe6b1860bd9515b4U, 0xbe1daf923e099de1U, 0xbe514ac6be0f59caU, 0x3d9515b4be292764U,
  0x3dc2f4fe00000000U, 0x3bb77d2cbe4e6cd1U, 0xbe42f4febc377d2cU, 0x3d9ad19dbd59e4a4U,
  0xbd70d4493e1237bfU, 0xbe899de13e42f4feU, 0xbd4e6cd13e208d86U, 0xbca08d86bd4e6cd1U,
  0x3e1ad19dbdb77d2cU, 0xbb377d2cbdbd3915U, 0xbe2927643deb1860U, 0xbd83e1f7bd9515b4U,
  0xbe9f1e8cbe1237bfU, 0xbe264970bd42f4feU, 0xbcfc4c1cbd208d86U, 0x3e73b23e3e1515b4U,
  0xbe4e6cd1bd7c4c1cU, 0xbce55c773dac0559U, 0x3c377d2c3e5706afU, 0x3e1ad19dbe48b0e8U,
  0x3df0d449beb60e31U, 0xbd1515b4bd099de1U, 0xbcfc4c1cbd9ad19dU, 0x3d377d2c3e4b8eddU,
  0xbe1ad19dbbb77d2cU, 0xbd83e1f73da64970U, 0x3dc8b0e8be7c4c1cU, 0x3e8dead0bd099de1U,
  0xbd42f4fe3c899de1U, 0xbe236b7bbdc8b0e8U, 0xbce55c773d377d2cU, 0x3e4e6cd13db1c142U,
  0xbdf58835bd7c4c1cU, 0xbe86c697bd8ac76cU, 0xbd0ac76c3e0570fbU, 0xbc801a8b3d20212eU,
  0x3e30247fbd2ace0eU, 0x3d9acabd3d2ace0eU, 0x3e5ad8033d602e73U, 0x3e78336dbe1acabdU,
  0xbe2d7947bdfadea5U, 0xbea6cd3abea2cc66U, 0x3e457e413c558192U, 0x3deadb543e12c914U,
  0xbe1d75f53e917378U, 0x3d7588353d8ac76cU, 0x3d0ac76c3da5779eU, 0xbe081c343e8971d0U,
  0x3dd02b223d8ac76cU, 0x3d7588353d801a8bU, 0x3e9d75f53e0d72a4U, 0xbc2ace0eU,
  0x3c5581923e7d89ddU, 0xbc95744d3e7031c4U, 0xbe8570fb3c001a8bU, 0x3d6adb54bcaace0eU,
  0xbc001a8b3df031c4U, 0xbd2ace0ebe30247fU, 0x3cd581923e841b5fU, 0xbc2ace0e3daace0eU,
  0xbde02e73be758835U, 0xbe5581923db57aefU, 0xbcd581923ea97872U, 0xbd95744d3e6d868cU,
  0xbe7adea5be6584e3U, 0xbd7588353c95744dU, 0xbe382628bddad803U, 0xbddad803bc001a8bU,
  0xbdaace0e3e602e73U, 0xbd4ad4b13e181f85U, 0xbe5d833b3c001a8bU, 0xbddad803be12c914U,
  0x3da5779ebe32cfb7U, 0x3e82c5c33d8570fbU, 0x3d602e733e881c34U, 0x3d001a8bbdf031c4U,
  0xbc801a8b3df031c4U, 0x3dc57e41be8c1d08U, 0xbc5581923ea822d6U, 0x3d001a8b3e4ad4b1U,
  0xbe41c1f03d901ddcU, 0xbea25661bd92a09aU, 0xbce66a16be9bcaa3U, 0x3bfb5c75U,
  0xbc2792f9bd320c28U, 0xbd70e3463db20c28U, 0xbdcc3b1fbe1a7b7dU, 0xbea643d3bddbf0e7U,
  0xbd1d19c9bdd6b44fU, 0xbdf61fddbe12a09aU, 0xbdb20c28be8ac5b6U, 0xbe5e8f323dd177b7U,
  0xbe17dd31bd9d19c9U, 0x3c7b5c75bd1d19c9U, 0x3e97dd31be10024eU, 0xbcbc8558bcd177b7U,
  0xbe12a09abd70e346U, 0x3d97dd31be0ac5b6U, 0x3dd177b73bfb5c75U, 0xbd97dd31bdeba6aeU,
  0xbe9fb815be08276aU, 0xbe93efc0be541603U, 0xbdaccf91bd82ead2U, 0xbe17dd31bd5177b7U,
  0xbdeba6aebe02ead2U, 0xbcbc85583e2f6ddcU, 0xbe46fe873d7b5c75U, 0x3e2ccf91bdbc8558U,
  0x3b2792f9bcfb5c75U, 0x3e90024ebd9d19c9U, 0x3e2792f93d12a09aU, 0xbe0ac5b6bd82ead2U,
  0x3df61fddbd3c8558U, 0x3e5bf0e73dcc3b1fU, 0x3e0d64023db748c0U, 0xbde12d7ebe5e8f32U,
  0x3dc1c1f03e8ac5b6U, 0x3e10024e3c2792f9U, 0xbe34aa74be5e8f32U, 0x3e004c86bdb748c0U,
  0xbb2792f9bd97dd31U, 0xbce66a163e39e70cU, 0x3dbc85583de12d7eU, 0x3e3c85583d7b5c75U,
  0xbe17dd313cfb5c75U, 0xbd320c283d12a09aU, 0x3dc6fe873dcc3b1fU, 0x3e2792f93e46fe87U,
  0x3dcab053be0d6402U, 0x3ccab053bc072037U, 0x3d98043e3cf7bb10U, 0xbe5051aabeb2c29eU,
  0xbd1da596bdcab053U, 0xbe18043ebd6c7860U, 0xbc342af43d28e845U, 0x3d6c78603c9da596U,
  0xbd1262e63b342af4U, 0x3cb42af4bdb42af4U, 0xbc872037bcf7bb10U, 0xbe315a48bcb42af4U,
  0x3c342af4bea07641U, 0x3db9cc4c3dae899dU, 0xbe4ab0533e2e899dU, 0xbc342af43e58c3aeU,
  0xbe072037be69a7b5U, 0x3d28e845bce135b1U, 0x3e39cc4c3df219b8U, 0xbe8b5939be0f923bU,
  0x3ea4af433c872037U, 0xbd6c7860bd072037U, 0x3cf7bb103dd051aaU, 0xbd1262e6bd9da596U,
  0xbe55f3023c342af4U, 0xbd8cc18f3dfd5c67U, 0x3da346ed00000000U, 0x3ea076413da346edU,
  0xbe9262e63e39cc4cU, 0x3dae899dbe872037U, 0xbda8e845bdbf6da3U, 0x3e969be8bc342af4U,
  0xbc072037be90fa90U, 0xbdec7860bdbf6da3U, 0x3db42af4bdc50efbU, 0xbe6135b1bc9da596U,
  0xbe1da5963e342af4U, 0xbd6c7860be0f923bU, 0xbe072037be9c3d40U, 0xbccab0533dfd5c67U,
  0x3d77bb10bda8e845U, 0xbc8720373ddb945aU, 0xbdf7bb10bdd051aaU, 0xbe261799bdae899dU,
  0xbdb9cc4cbe0cc18fU, 0xbe0cc18f3de135b1U, 0xbdd5f302be58c3aeU, 0x3e85b7e1be6f490cU,
  0x3e6919e6be5e6505U, 0xbe21f1a8be0bdc57U, 0x3ddcd52b3d61bd76U, 0xbe15acedbe444bb4U,
  0x3cff2f37bdc933ffU, 0x3de6a5c13e3592d4U, 0x3e7cbb12bcff2f37U, 0xbe4ba8253d4e1c4aU,
  0x3e096831bcff2f37U, 0x3e3a7b1e3e3806f9U, 0x3df55ea13e77d2c7U, 0x3e4ba825be5578baU,
  0xbd1d095d3e1d095dU, 0x3da1f1a83dce1c4aU, 0xbd1338c7bd7f2f37U, 0xbdba7b1e3df07656U,
  0x3d896831be7a46ecU, 0x3deb8e0c3d4e1c4aU, 0x3e755ea1bd755ea1U, 0x3e3cef443df07656U,
  0x3e66a5c13c1d095dU, 0x3c6b8e0cbc444bb4U, 0x3e06f40c3c444bb4U, 0xbe9bcf4abcd7ece0U,
  0x3e5f4950be1a9538U, 0xbe1338c73e4e1c4aU, 0x3e30aa893d896831U, 0x3da6d9f33d57ece0U,
  0x3d847fe6bdb0aa89U, 0xbe331eae3dd30495U, 0x3df076563e047fe6U, 0x3c6b8e0cbe9472daU,
  0xbe15aced3d847fe6U, 0xbd755ea1bdc933ffU, 0x3d61bd76be530495U, 0x3dba7b1ebdf55ea1U,
  0xbd30aa893e3806f9U, 0x3e8f8a8fbe896831U, 0x3cd7ece03dbf6369U, 0xbd8e507c3d096831U,
  0x3dba7b1e3e10c4a2U, 0xbdfa46ec3ddcd52bU, 0xbe2bc23e3e2bc23eU, 0xbb9d095d3e10c4a2U,
  0xbd9d095d3d1d095dU, 0xbdbf6369bc444bb4U, 0xbe1d095dbe182112U, 0xbe331eaebe41d78fU,
  0xbdc10794be530495U, 0xbe045cf8bb307bf5U, 0x3d845cf8be9e8f5eU, 0x3e2dba053e6d2691U,
  0x3d045cf83da57436U, 0x3d9ff0563da57436U, 0xbde7a2b1bcdc9af2U, 0x3e1d2e66be22b246U,
  0xbd72aa713dbb83b4U, 0x3d519333bded2691U, 0x3c9a6c763d045cf8U, 0x3cdc9af23c307bf5U,
  0xbea6d52e3e333de5U, 0x3d3b83b43c5c9af2U, 0x3d845cf83e6d2691U, 0x3e621ed2be283625U,
  0xbe4c0f533d307bf5U, 0xbcb07bf53d3b83b4U, 0x3d3b83b4be4c0f53U, 0x3d8f64b7bd9a6c76U,
  0x3cdc9af2be82fc00U, 0xbe621ed23c307bf5U, 0x3dcc0f53be019b08U, 0x3d89e0d7bd67a2b1U,
  0x3e09e0d73df2aa71U, 0xbe5c9af2beaf1afdU, 0xbd307bf5be283625U, 0xbdc68b743dcc0f53U,
  0xbd9ff0563e2dba05U, 0x3e14e897be0ca2c7U, 0xbe5f5ce23cdc9af2U, 0xbda57436be990b7eU,
  0x3cdc9af2bcf2aa71U, 0x3e545523be89e0d7U, 0x3e59d9023c5c9af2U, 0x3e4107943c845cf8U,
  0x3e045cf83c307bf5U, 0xbe14e8973e3e45a4U, 0x3cf2aa713e5f5ce2U, 0xbe0f64b7be2af815U,
  0xbd0f64b7bd045cf8U, 0xbd9ff056be64e0c2U, 0xbd94e897be257436U, 0x3dc68b743e6a64a1U,
  0x3e019b083d519333U, 0xbdc68b74be071ee8U, 0xbe803a10bd67a2b1U, 0x3e333de53e4c0f53U,
  0xbd8c48e4be1a6c76U, 0x3e5845b5bdd26d56U, 0xbd2f5b1dbd526d56U, 0xbcbb0bdabe26968fU,
  0x3d0c48e4be809826U, 0xbdefa730be0f3513U, 0x3e6cbb013d23aa5fU, 0x3dcc94f73e9c5be9U,
  0x3bbb0bdabd757f8fU, 0x3d3b0bda3de3f672U, 0xbd8098263e0f3513U, 0x3d867085bd9dd200U,
  0xbe8c48e43da982beU, 0x3dc6bc98be1dd200U, 0xbe0c48e43d97f9a2U, 0x3df57f8f3e1ae5d1U,
  0xbc69ced1be17f9a2U, 0xbdd26d56be97f9a2U, 0xbce9ced1be1ae5d1U, 0xbe757f8fbcbb0bdaU,
  0x3e1221433dc0e439U, 0x3da982bebdde1e13U, 0xbc69ced1bd23aa5fU, 0x3e69ced13cbb0bdaU,
  0x3cd26d563daf5b1dU, 0x3e83845600000000U, 0xbe6cbb01be5845b5U, 0x3ce9ced1bd46bc98U,
  0x3df57f8f3d69ced1U, 0x3c69ced13da3aa5fU, 0xbe5845b5bd9dd200U, 0xbda3aa5fbcd26d56U,
  0xbdde1e13bca3aa5fU, 0x3d17f9a23e40e439U, 0x3e6cbb013e786bbeU, 0xbdc6bc98bdbb0bdaU,
  0xbe9dd200bca3aa5fU, 0xbcbb0bda3e5845b5U, 0xbdaf5b1dbd757f8fU, 0xbd3b0bdabe555985U,
  0x3da982bebe950d72U, 0x3d17f9a200000000U, 0x3e5b31e4be0f3513U, 0xbc3b0bdabcbb0bdaU,
  0x3dde1e13bc8c48e4U, 0x3cbb0bdabe40e439U, 0x3d97f9a23eb995c3U, 0x3e5559853da3aa5fU,
  0x3df391063e5b31e4U, 0xbe4bdac53e1c3344U, 0xbd9ed904be070543U, 0xbe26ca44be144203U,
  0x3e3bf844bc7e2806U, 0xbd68fa053dc93505U, 0x3ea17ec43d53cc05U, 0xbe0c50c33ca97004U,
  0x3e7b8246be845f83U, 0xbd9ed9043d68fa05U, 0xbc297004bdc93505U, 0x3e8afde3be468f45U,
  0xbe09ab03bcbe9e04U, 0xbe198d843e4143c4U, 0x3d68fa053d297004U, 0x3e4143c4be16e7c3U,
  0x3d7e2806bd53cc05U, 0xbe3407043e395284U, 0x3d944203bdd91785U, 0x3d9ed9043df8dc86U,
  0xbe3952843d53cc05U, 0x3e119c43bdc3e984U, 0x3d7e28063e468f45U, 0xbd1ed9043ce8fa05U,
  0xbe8705433d944203U, 0x3ce8fa05bdbe9e04U, 0xbe4143c43c944203U, 0xbdd917853e0ef683U,
  0xbe16e7c3bcbe9e04U, 0x3d998d843d68fa05U, 0x3df391063d53cc05U, 0xbc7e2806bea02be4U,
  0xbe198d84bd5e6305U, 0xbc53cc05bcbe9e04U, 0x3e2970043d7e2806U, 0x3e591785U,
  0xbde8fa053e340704U, 0xbc53cc05be5bbd45U, 0xbdb95284be2c15c4U, 0xbe070543bdde6305U,
  0xbe63ae85be070543U, 0x3ca97004bc297004U, 0x3e8705433e0c50c3U, 0xbea81d243e78dc86U,
  0xbdb407043da97004U, 0xbda424843e16e7c3U, 0xbc297004bb297004U, 0x3e3e9e04bdf8dc86U,
  0xbe3d40cabd89ab03U, 0xbd7fbf57bd6b49a2U, 0xbe1972ce3e5962a3U, 0x3e6b49a23d610ec7U,
  0x3d0f37f3be0f37f3U, 0xbd2de8833dc77ba5U, 0xbd7fbf57bd56d3edU, 0x3d610ec7be04fd19U,
  0x3c75847c3dd6d3edU, 0x3e145560bca3ada8U, 0xbdd6d3edU, 0x3e878bcf3b23ada8U,
  0x3e2b59ccbe2b59ccU, 0x3e6b49a23cf5847cU, 0xbe639d7e3db8235dU, 0x3cf5847cbe38235dU,
  0x3dcc9912be6b49a2U, 0x3d23ada83e8f37f3U, 0x3e907f4e00000000U, 0xbd610ec73e8df098U,
  0x3d1972cebe0ca93dU, 0x3e145560be0f37f3U, 0x3d04fd19bd0f37f3U, 0x3e3d40ca3d1972ceU,
  0x3e662c34be3d40caU, 0xbe8ca93dbe8df098U, 0xbdcc9912U, 0x3e3d40cabe826e62U,
  0xbdb8235d3e3594a7U, 0xbd9972ce3d945560U, 0xbdcc9912bd4c9912U, 0xbb23ada83e812707U,
  0xbe3d40cabe4a0a5cU, 0x3d610ec73c4c9912U, 0x3cb8235dbe7d30a0U, 0xbe04fd19be263c5fU,
  0xbe9aba29bea2664dU, 0x3e826e62bd75847cU, 0xbc75847cbe3fcf81U, 0xbe907f4ebe0ca93dU,
  0xbdcc99123da8cb15U, 0x3ca3ada83ce10ec7U, 0xbda8cb153d4c9912U, 0xbc23ada83dbd40caU,
  0xbd9e903b3deb49a2U, 0x3ddbf15a3e610ec7U, 0x3d2de8833e04fd19U, 0x3e0f37f33e11c6aaU,
  0xbe57a0a83ddbf15aU, 0xbe2bf4c63e0303a3U, 0xbe786190bdf5a6d2U, 0xbd8dee9cbe522b2bU,
  0x3e7b1c4f3e1b9452U, 0x3e8048e5be9e4f10U, 0xbe703156bdf5a6d2U, 0x3d8879203d0303a3U,
  0x3d4f706dbcc48575U, 0x3e8048e5be05be61U, 0x3e1e4f103e293a08U, 0xbe10a95a3daeaf85U,
  0xbd8dee9cbdf03156U, 0xbe49faf13e6d7698U, 0x3d0303a33ea67f4aU, 0xbd5a5b66be474033U,
  0xbe316a43bd5a5b66U, 0xbd65465ebcc48575U, 0x3cc485753e7b1c4fU, 0x3deabbdabda93a08U,
  0x3b2eaf853c2eaf85U, 0xbbaeaf853e4cb5afU, 0xbd8303a3bdc48575U, 0x3e161ed63b2eaf85U,
  0x3d98d994bead5226U, 0x3c5a5b66bdc9faf1U, 0xbe7861903e65465eU, 0x3e90a95abd18d994U,
  0xbd8dee9cbe57a0a8U, 0x3caeaf85U, 0xbe977c35be75a6d2U, 0xbe0303a33e23c48cU,
  0xbd23c48c3e267f4aU, 0xbdc9faf1bdc9faf1U, 0xbe522b2bbe65465eU, 0x3e75a6d23e72ec14U,
  0xbd887920bdc9faf1U, 0xbd23c48cbe3f0ff9U, 0xbe5a5b66be6abbdaU, 0x3d18d9943cc48575U,
  0xbdbf0ff93d18d994U, 0x3e4cb5af3d7b1c4fU, 0x3e136418be136418U, 0xbe18d9943d9e4f10U,
  0x3e9a36f33de5465eU, 0xbd2eaf85bd7b1c4fU, 0xbd18d9943e8dee9cU, 0x3d23c48cbda93a08U,
  0xbe806089bdeabbdaU, 0xbdfdfe4fbe9d5d90U, 0x3e7878c8be9bfc2eU, 0x3e90f11fbe72f340U,
  0x3e6aaaf5bb30b0e9U, 0x3db0b0e9bc8484afU, 0x3e93b3e33d67e832U, 0xbd30b0e93b30b0e9U,
  0x3d30b0e9be1a9accU, 0x3da5a5dabcb0b0e9U, 0x3ddcdd233e2dee25U, 0xbda5a5dabdd1d215U,
  0xbc8484afbcf2f340U, 0x3da02053bea8689eU, 0xbe2b2b62be51d215U, 0x3e0f8fbdbd951545U,
  0xbd51d2153c0484afU, 0xbe0f8fbd3b30b0e9U, 0x3d951545bde7e832U, 0x3d46c706be5cdd23U,
  0xbe38f934bcc6c706U, 0xbd8a0a363d72f340U, 0xbd9515453e28689eU, 0xbd0484af3e074772U,
  0x3c5cdd233d67e832U, 0x3c30b0e93dc6c706U, 0xbc9a9accbe5f9fe7U, 0x3d1a9accbe3373adU,
  0xbe125281be70307dU, 0x3d51d215be3e7ebbU, 0xbdb0b0e9bcb0b0e9U, 0x3d9a9acc3cc6c706U,
  0xbe0f8fbdbdb0b0e9U, 0x3df878c8bea02053U, 0x3e0f8fbdbe874772U, 0x3d67e8323c9a9accU,
  0x3dcc4c8dbe7878c8U, 0x3d46c7063d0484afU, 0xbeaf4f873ded6db9U, 0xbbb0b0e9bd46c706U,
  0x3cc6c7063e65256eU, 0x3dc6c706bd3bbbf8U, 0x3c9a9acc3d72f340U, 0xbd46c7063ddcdd23U,
  0xbde7e832bd9a9accU, 0x3cf2f340bcdcdd23U, 0xbd51d215be2b2b62U, 0x3e3373ad3d3bbbf8U,
  0x3d87ca683c0484afU, 0xbdadcfe1bdc389deU, 0xbe2dcfe13e1acd25U, 0x3d9d84643e38acdfU,
  0xbe22f2e33ceefdd6U, 0xbd6efdd6be46411dU, 0xbe0d38e73d5943daU, 0xbe8513293e3e1b5fU,
  0x3ceefdd63e7f4953U, 0xbe0ff027bea9bd02U, 0xbdf9dad4be07ca68U, 0x3d22f2e3be286162U,
  0xbdadcfe1bdbe1b5fU, 0xbe07ca68bdc389deU, 0x3d22f2e3beac7442U, 0x3d6efdd63ddeb259U,
  0x3e35f5a03e1acd25U, 0x3d6efdd63badcfe1U, 0xbe07ca683e6efdd6U, 0x3e997185bceefdd6U,
  0xbe0a81a8bdbe1b5fU, 0xbe1acd25bd6420d8U, 0x3d5943dabda2f2e3U, 0x3c825be93d9815e5U,
  0xbe746c55bcadcfe1U, 0xbd6420d83c825be9U, 0x3dc389de3d92a766U, 0x3cc389de3e1d8464U,
  0xbc825be93e0a81a8U, 0x3dc8f85d3da2f2e3U, 0x3c9815e53d4e66dcU, 0xbc825be93e5bfb19U,
  0x3d825be9be6c4696U, 0x3db33e603c025be9U, 0x3e38acdf3d825be9U, 0x3c5943da3e25aa23U,
  0x3c2dcfe13e87ca68U, 0x3d2dcfe1be22f2e3U, 0xbe7f49533e07ca68U, 0xbe71b5153e698f57U,
  0x3e5943dabddeb259U, 0x3df9dad43d8d38e7U, 0xbe155ea63e203ba4U, 0x3d2dcfe1bdce66dcU,
  0x3de98f573c9815e5U, 0x3e2861623e5bfb19U, 0xbe4baf9c3c5943daU, 0x3d8d38e73c025be9U,
  0x3db07f323e38acdfU, 0x3b0d328f3d39525bU, 0xbe29e0d4be210dabU, 0xbd27ac0abd53cbd6U,
  0xbdf2aee5be845f66U, 0x3cd3cbd6bc9ed8e1U, 0xbe1605b8bd845f66U, 0xbdcaf8adbd657228U,
  0x3d307f323d422584U, 0x3de108933d27ac0aU, 0x3e8c182abe045f66U, 0xbe4d2d77be27ac0aU,
  0x3e234275bd919c23U, 0xbe183a823de57228U, 0xbd1605b83dfb820eU, 0xbe6572283e183a82U,
  0xbd845f663d88c8faU, 0xbe022a9c3d9ed8e1U, 0x3d77187a3d9ed8e1U, 0x3d1605b83d1ed8e1U,
  0xbb8d328f3d0d328fU, 0xbe2e4a68bcc22584U, 0xbe8afdc53c9ed8e1U, 0x3e48c3e33df2aee5U,
  0x3ddc9eff3e0f6759U, 0xbda342753d9605b8U, 0xbde108933e27ac0aU, 0xbe610893be307f32U,
  0x3e2c159e3e633d5eU, 0xbe0694303de57228U, 0x3d5c9eff3e08c8faU, 0xbd7feba3bdc22584U,
  0xbe119c233dc68f19U, 0x3c77187a3cd3cbd6U, 0x3d27ac0a3e1605b8U, 0xbd9605b8bdac159eU,
  0xbdac159ebe32b3fdU, 0x3e822a9cbd88c8faU, 0xbdf7187a3c53cbd6U, 0x3bd3cbd6bd5c9effU,
  0x3d0d328fbc77187aU, 0x3da7ac0abd53cbd6U, 0x3e069430be422584U, 0x3da34275bdf2aee5U,
  0x3e08c8fabdb9525bU, 0x3b8d328f3d0d328fU, 0x3e5c9effbe657228U, 0xbd7feba33dcf6242U,
  0xbdef2f28be422584U, 0x3e2564b1be5d5f64U, 0x3d41620bbb22d94cU, 0x3df95cbd3d9394edU,
  0xbe8bf2be3d896758U, 0xbdb73476bea1939aU, 0x3ddad3ffbe0bf2beU, 0xbcf445f2bd04508eU,
  0xbe89675800000000U, 0x3e5848993dcb8f9fU, 0x3e1394ed3dd0a66aU, 0xbe04508e3e2f9246U,
  0xbda7f017bbf445f2U, 0xbb22d94cbe71ba8dU, 0x3e86dbf3bdd5bd34U, 0x3e7e73873e2564b1U,
  0x3d7445f2bd18abb8U, 0xbe924f3b3e3c4b40U, 0x3c8e7e23be0e7e23U, 0x3ba2d94c3d4b8f9fU,
  0x3dbc4b403d373476U, 0x3e22d94cbdef2f28U, 0xbcdfeac9be43ed70U, 0x3c22d94cbde50193U,
  0xbd8967583d2d06e1U, 0xbdf445f23e2d06e1U, 0x3d7445f23d18abb8U, 0xbd5feac9be096758U,
  0x3da7f017be39bfdbU, 0x3d2d06e1be06dbf3U, 0xbdc678d53e8bf2beU, 0x3e06dbf3bea04de7U,
  0x3e6a185e3cdfeac9U, 0x3e162052bdd0a66aU, 0xbe2f9246bdd0a66aU, 0x3e04508ebe62762eU,
  0xbdfe73873e7be822U, 0xbe18abb83c4b8f9fU, 0xbda2d94c3e50a66aU, 0xbe43ed703e06dbf3U,
  0x3e162052bd6a185eU, 0x3e4b8f9f3e5331cfU, 0xbda2d94cbdd5bd34U, 0xbe204de73e2a7b7cU,
  0x3e8967583ca2d94cU, 0xbd22d94cbd04508eU, 0xbe1b371dbd896758U, 0x3d4b8f9fbd7e7387U,
  0xbe21473a3d373476U, 0xbdec284c3e3b32adU, 0xbe15c224be92e0deU, 0xbdb851673d5ae0abU,
  0xbe3e13f23e523cdaU, 0x3e12e0de3ddae0abU, 0xbd15c2243df7ad63U, 0xbe21473abe0a3d0dU,
  0xbe9a140cbd847a82U, 0xbbb851673e1b84afU, 0x3d7d6feebddae0abU, 0x3e0a3d0d3dcf5b94U,
  0x3de0a3363de0a336U, 0x3d6665c13cfd6feeU, 0x3d6665c1bda709c6U, 0x3daccc51be3b32adU,
  0x3d21473a3e3b32adU, 0xbdc3d67ebca1473aU, 0x3d3851673df7ad63U, 0xbd7d6feebd847a82U,
  0xbdb85167be5ae0abU, 0x3e2ccc513ca1473aU, 0xbea42880bdc3d67eU, 0xbc3851673d2ccc51U,
  0xbe18a36a3d8fff99U, 0xbeb6e0c4bd8fff99U, 0xbda1473abe71ead8U, 0xbb3851673e551e1fU,
  0x3ea59923bdf1ead8U, 0x3dbe13f23e12e0deU, 0xbe1e65f53dc99909U, 0x3ddae0abbd15c224U,
  0xbd6665c1be1b84afU, 0xbccf5b94bccf5b94U, 0x3e2709c63e2709c6U, 0xbda1473abe8e8ef6U,
  0xbd8fff993e5dc1f0U, 0xbce665c1bc8a3d0dU, 0xbb3851673e57ff65U, 0x3d5ae0abbe80289aU,
  0x3d385167bc8a3d0dU, 0x3d847a82bd385167U, 0x3d8a3d0d3dc99909U, 0xbe075bc83df7ad63U,
  0x3e3570223e1e65f5U, 0x3e18a36a3d7d6feeU, 0x3e7a8ea8be075bc8U, 0x3d4f5b94be2ccc51U,
  0xbe5bd6e83e9fd698U, 0xbdc143f63e4aedc2U, 0xbdadf05d3e352fb6U, 0xbd9f71ab3e0e8885U,
  0x3df669d93e67eb27U, 0xbd54978ebc87492cU, 0x3b1a9cc53c4143f6U, 0xbcadf05dbce7eb27U,
  0x3e6a559abe0e8885U, 0x3e1f71ab3e3a049dU, 0x3db79a2abce7eb27U, 0x3d379a2a3d7194f3U,
  0xbdc143f6bdecc00dU, 0x3dbc6f10bc4143f6U, 0xbd827446bd8c1e12U, 0xbd827446bdf669d9U,
  0x3d7b3ec03d7194f3U, 0xbe291b77be4aedc2U, 0x3d90f2f8bd4143f6U, 0x3d827446bc1a9cc5U,
  0xbe183252bc67eb27U, 0xbdbc6f10be32c543U, 0x3e48834fbda91b77U, 0xbe379a2a3d10f2f8U,
  0xbd95c7dfbe26b104U, 0x3e0e8885bdfb3ec0U, 0xbdb79a2abd7b3ec0U, 0x3e09b39f3dcfc2a8U,
  0xbe9832523e04deb9U, 0x3d9a9cc5bd827446U, 0xbdcfc2a8be84deb9U, 0xbdde415bbe4143f6U,
  0x3dcaedc2bda91b77U, 0xbe305ad03e21dc1eU, 0xbe887e66be09b39fU, 0x3d5e415bbd10f2f8U,
  0xbe522d1bbdc143f6U, 0xbbe7eb273d87492cU, 0xbdf194f33df669d9U, 0xbdc143f6bd2df05dU,
  0x3d54978e3e99678bU, 0xbdbc6f103cc143f6U, 0xbe87492c3dd96c75U, 0x3d5e415bbe813f0cU,
  0x3e4143f63e10f2f8U, 0x3e6cc00dbda91b77U, 0x3d8c1e123e83a97fU, 0xbe6a559abd67eb27U,
  0xbe1fb742bd9f71abU, 0x3da2558abd8826b6U, 0xbe8eb26bbe63ca9cU, 0xbde668e53da7921bU,
  0xbdeba576bd1d18f9U, 0x3e3c845e3e0ac4feU, 0x3e2a3063bd929fd7U, 0x3df61e973d27921bU,
  0xbe69072d3d8826b6U, 0x3cfb5b28be5befc3U, 0x3cbc845ebe0826b6U, 0x3d1d18f9be1a7ab1U,
  0x3e445f37be445f37U, 0xbe2f6cf4be761e97U, 0xbd46fd803e1a7ab1U, 0xbe2f6cf4bddbefc3U,
  0x3e0d63473ea642f7U, 0xbdfb5b283ba7921bU, 0xbde668e53ddbefc3U, 0xbe1a7ab1be8d6347U,
  0xbe3c845ebe59517bU, 0x3e02ea253e804bddU, 0xbc5176a23d97dc68U, 0x3b27921b3e24f3d2U,
  0x3e0ac4fe3e22558aU, 0x3bfb5b283e34a985U, 0x3dcc3a113cbc845eU, 0xbd97dc68bdc6fd80U,
  0xbd9d18f93e24f3d2U, 0x3e7b5b28be4ed859U, 0x3e22558abe1d18f9U, 0xbe6ba5763de12c54U,
  0xbe34a9853e46fd80U, 0xbe9a7ab13e1d18f9U, 0xbd8d6347be9e681dU, 0xbd1d18f9be3f22a7U,
  0xbe7df9713d320b3cU, 0xbe4c3a11bd5176a2U, 0xbd129fd7bdbc845eU, 0x3e39e616bd129fd7U,
  0xbe05886d3e445f37U, 0xbe0ac4febd27921bU, 0x3db747cdbbfb5b28U, 0x3d5befc33e153e20U,
  0xbe05886d3e22558aU, 0xbe90018fbba7921bU, 0xbe2f6cf4be8c1422U, 0xbe2a3063bdb20b3cU,
  0xbe8517473de12c54U, 0xbe36ac803e90d591U, 0x3d4654e3be606d87U, 0x3e394891be27041dU,
  0xbbfa862cbc92239aU, 0x3e14bfaabe55fd46U, 0xbe36ac803e9c93dcU, 0x3e0a4f683e5dd177U,
  0xbe29a02ebd12239aU, 0x3da1cbfcbda1cbfcU, 0xbe9b45d33d92239aU, 0x3d50c5253e14bfaaU,
  0x3da1cbfcbe4654e3U, 0xbe3410703df015eaU, 0x3cd0c525bdcb8d04U, 0xbd827b37bc50c525U,
  0xbe606d873ea5b615U, 0xbe1f2fecbce5a5a8U, 0xbd9c93dcbde5a5a8U, 0x3dfa862c00000000U,
  0x3dfa862c3e4654e3U, 0x3e630998be98a9c3U, 0x3dc11cc23ddb3567U, 0xbe27041d3d1c93dcU,
  0xbd87b3583d65a5a8U, 0x3ddb35673e0f8789U, 0x3e1f2fecbd7015eaU, 0xbe027b373e1f2fecU,
  0x3d7a862c3df015eaU, 0xbd65a5a83cd0c525U, 0xbcbbe4a1be29a02eU, 0xbe29a02e3e36ac80U,
  0x3dcb8d043d65a5a8U, 0xbe27041dbde06d87U, 0x3d8ceb793e0f8789U, 0xbba7041dbe2ed84fU,
  0xbe2c3c3ebc27041dU, 0x3e589956bd5b3567U, 0x3dac3c3e3e27041dU, 0xbdb6ac80be1c93dcU,
  0xbdf54e0bbd12239aU, 0x3d4654e3bd7015eaU, 0xbe3be4a13cd0c525U, 0xbda7041d3ce5a5a8U,
  0xbdc654e300000000U, 0xbe975bbbbd27041dU, 0x3ea4680dbdac3c3eU, 0x3d975bbb3e175bbbU,
  0xbcbd01c7bde5a5a8U, 0x3cd201fa3e74224cU, 0x3e4a21e73cfc025fU, 0xbe0881493e10615cU,
  0xbda80195be54a200U, 0x3c5201fabd83413cU, 0xbe796259be9c3178U, 0x3dc781e13dbd01c7U,
  0x3ea6b1913e280195U, 0x3d5c8213be83413cU, 0x3e76c2523e69a233U, 0xbd1301623c5201faU,
  0x3d0881493ca80195U, 0x3d7c025fbe0b214fU, 0xbcbd01c73db7c1bbU, 0x3e9991723da80195U,
  0xbdf182463cd201faU, 0xbd9d817bbdec4239U, 0xbd5c82133e15a168U, 0xbe3281ae3e67022cU,
  0x3d2801953e90615cU, 0x3b2801953ba80195U, 0xbd8881493e280195U, 0x3da801953e81f139U,
  0xbdb281ae3d280195U, 0xbe1ae175be98416fU, 0xbcbd01c7be130162U, 0x3d130162be646226U,
  0x3d130162be718246U, 0xbd5c8213bda2c188U, 0x3dbd01c73e2aa19bU, 0xbdb281ae3dd201faU,
  0xbe6462263e89d14cU, 0xbe0b214fbcd201faU, 0xbca801953d718246U, 0x3e2fe1a83da2c188U,
  0xbdc241d43e2fe1a8U, 0xbe54a200bcfc025fU, 0x3d1d817bbcfc025fU, 0xbde1c2203d9d817bU,
  0xbdf18246bd8dc155U, 0xbd0881493dad41a1U, 0x3d8dc1553d7c025fU, 0xbe18416fbe5f2219U,
  0x3e1301623cd201faU, 0xbdfc025f3e61c220U, 0xbe1ae175be7c025fU, 0xbe280195bdd201faU,
  0xbd14344cbe6ee23fU, 0x3e4a8bbe3e0a52f2U, 0x3bed207abd007198U, 0x3dfbf282be60c6c9U,
  0x3dcf7c6bbd633f20U, 0x3e797a2b3d856245U, 0x3e56e56f3dbbb9b6U, 0x3e807198bd007198U,
  0xbbed207a3e459b11U, 0x3e0a52f2bc1e15a7U, 0x3e0f439f3dca8bbeU, 0x3e31d85cbdb6c909U,
  0x3e14344cbe4322baU, 0x3e4a8bbebd27f701U, 0xbd8f439fbdc0aa63U, 0xbe31d85cbd007198U,
  0x3cc59b11be16aca3U, 0x3e4a8bbe3d595dc5U, 0x3e4a8bbebe7e6ad8U, 0xbd8a52f2bdde4e73U,
  0x3d1e15a7bd633f20U, 0x3e0ccb493e7bf282U, 0x3d8a52f2bd3bb9b6U, 0x3e36c9093e7e6ad8U,
  0xbdc59b11be595dc5U, 0xbe6aa8243d0a52f2U, 0x3d27f7013d14344cU, 0xbe2f6005be4f7c6bU,
  0xbdb6c909bdace7aeU, 0xbd4f7c6bbcd95dc5U, 0xbd31d85c3bed207aU, 0x3c1e15a7bdca8bbeU,
  0xbe0ccb49bde33f20U, 0xbda7f7013d4f7c6bU, 0x3e81adc3bd007198U, 0xbd14344c3e8916c7U,
  0xbdb1d85c3e07da9bU, 0xbe459b11bc9e15a7U, 0xbe208dfdbe81adc3U, 0x3e2f6005bd807198U,
  0xbc1e15a73e9cd97cU, 0xbdb1d85cbde82fcdU, 0xbe3bb9b6bdf701d5U, 0xbe2306543d856245U,
  0xbe459b11bb9e15a7U, 0x3d14344c3da30654U, 0x3d8562453d27f701U, 0x3e633f20be3e320dU,
  0x3db28a163d1e15a7U, 0xbd28097e3ce70d0dU, 0x3e81f758bd520bdeU, 0x3e0dc8023d8887b6U,
  0xbdad49cabd13084eU, 0xbca8097ebd13084eU, 0xbdd20bde3dc78b46U, 0xbd670d0d3d670d0dU,
  0x3e3d0aae3ea6b96bU, 0xbe03476b3e81f758U, 0xbdbd0aaebe4a2b6cU, 0x3de1ccc13d13084eU,
  0xbe9ae8c03d3d0aaeU, 0xbe0dc8023e4ccb92U, 0xbe91b83bbd5c8c76U, 0xbe18489abc7c0e3dU,
  0xbe9998ad3e8c77efU, 0x3dc24afabcfc0e3dU, 0x3dc78b463df18da5U, 0xbe00a745bd93084eU,
  0xbde70d0dbba8097eU, 0xbe61ccc1be91b83bU, 0xbdc78b46be7eae63U, 0x3df18da53c28097eU,
  0x3d8dc802bd98489aU, 0xbbfc0e3dbe718da5U, 0xbe256958bd478b46U, 0x3d5c8c76bdcccb92U,
  0xbcfc0e3d3ce70d0dU, 0x3dc78b463e5c8c76U, 0xbd98489a3d8887b6U, 0x3d670d0dbdd20bdeU,
  0xbdd20bdebe81f758U, 0xbe8c77ef3e0b27dcU, 0xbd3d0aae3d3d0aaeU, 0x3e81f7583e54ac04U,
  0x3d328a16be2d49caU, 0xbdd20bdebce70d0dU, 0xbd670d0dbce70d0dU, 0x3e1ae8c03e89d7c9U,
  0xbdb7ca62bd3d0aaeU, 0xbe8737a43c28097eU, 0xbd328a16be1d88e6U, 0x3e15a8743e352a3cU,
  0xbdc24afa3d13084eU, 0xbdcccb923ce70d0dU, 0x3ddc8c763de70d0dU, 0x3d0887b6be1d88e6U,
  0xbe85d4c9bddc8c76U, 0x3d4a02653de342b1U, 0x3d5e35d5be2bb53cU, 0xbe30c218bd7c82feU,
  0xbcde35d53df77622U, 0x3dd928f9be00c7edU, 0x3e477bf73e1f1516U, 0x3e4f0f41be885b37U,
  0x3e034e5b3d726946U, 0xbbf269463d885b37U, 0x3e30c218bd219b84U, 0xbd684f8d3cf26946U,
  0x3e0d68133c219b84U, 0xbe94fb5dbda6a860U, 0x3e3fe8ac3e1274efU, 0xbd4a0265be777622U,
  0xbe0ae1a5be00c7edU, 0xbdca02653d0d6813U, 0x3d9c8ea83df26946U, 0xbe219b84be5e35d5U,
  0x3cb5cef4bb219b84U, 0x3c726946be334886U, 0x3e5928f9U, 0xbd219b843d7c82feU,
  0x3d034e5bbd834e5bU, 0xbd9c8ea83dca0265U, 0xbe426f1a3d9c8ea8U, 0xbe00c7ed3e85d4c9U,
  0xbe60bc433e2bb53cU, 0xbe477bf7bd541c1dU, 0x3c8d68133db5cef4U, 0x3d3fe8ac3d726946U,
  0xbdcf0f41be2e3baaU, 0xbd9781cb3cca0265U, 0xbca19b84bde342b1U, 0x3e2421f2bde84f8dU,
  0x3df269463d219b84U, 0xbdde35d5be726946U, 0xbbf269463e3fe8acU, 0x3dde35d5bdc4f589U,
  0x3cf26946bded5c69U, 0xbe14fb5dbc4a0265U, 0xbb219b843ea0584dU, 0x3e7269463e1781cbU,
  0xbca19b843d541c1dU, 0x3e44f5893d726946U, 0xbdde35d5bd3fe8acU, 0xbd684f8d3e79fc90U,
  0x3e2a08b63d9274efU, 0x3e2d12023d91be53U, 0xbd4e784abdecd546U, 0xbc11be533df2e7dfU,
  0x3b425319be0eb506U, 0x3e9039acbe6cd546U, 0xbd66c2adbdd48ae3U, 0xbd4e784abdf2e7dfU,
  0x3e0babbabd1de384U, 0x3df2e7df3ec0ce73U, 0x3de0b015be14c79fU, 0xbbc253193e17d0ebU,
  0x3d362de73e425319U, 0x3e66c2ad3e4865b2U, 0xbe94c79f3c425319U, 0xbe1ada38bd11be53U,
  0x3dce784abc72e7dfU, 0xbea0ecd13e20ecd1U, 0x3e14c79fbde6c2adU, 0xbe7c03c4be425319U,
  0x3e5a9d7c3cf2e7dfU, 0xbe455c653d5a9d7cU, 0xbe75f12b3e75f12bU, 0xbd0599213e393734U,
  0x3ea3f61d3e91be53U, 0x3de0b0153cc25319U, 0x3e0eb5063e91be53U, 0xbd059921be94c79fU,
  0xbd362de7bdb01b4eU, 0x3e8599213e8d3060U, 0x3d425319beb3249bU, 0xbd8babba3e4b6efeU,
  0xbde6c2adbe08a26dU, 0x3dbc4080be78fa78U, 0xbdb01b4ebe11be53U, 0x3b4253193db62de7U,
  0xbdce784abe17d0ebU, 0x3e14c79fbe84147bU, 0xbe028fd5bdbc4080U, 0x3d425319bdf2e7dfU,
  0xbdc865b23d859921U, 0x3e9039ac3d11be53U, 0xbe8d30603d66c2adU, 0x3daa08b6bd7f0d11U,
  0xbcaa08b6bdb01b4eU, 0x3c91be53bc72e7dfU, 0x3e17d0ebbc425319U, 0xbdb62de73db01b4eU,
  0x3e950a59be23f61dU, 0x3d1c9155be289c83U, 0xbd7ceac5bc908627U, 0x3d8a80903e9388f3U,
  0x3e67d7343ddeced2U, 0xbdd2c3a4bddeced2U, 0x3e67d7343dfceac5U, 0xbdf6e52ebe34a7b1U,
  0x3eaa1de9bd047af9U, 0x3e047af9bdc6b876U, 0x3df6e52ebe077dc5U, 0x3e289c833e01782eU,
  0x3dccbe0d3d108627U, 0xbdd8c93bbe64d469U, 0xbe88ff2b3d908627U, 0x3d908627be168bbeU,
  0x3e49bb423e64d469U, 0x3e64d469bc40b2dfU, 0x3c40b2df3d289c83U, 0xbe01782e3de4d469U,
  0x3da296ecbe3aad48U, 0xbe5eced2bd847af9U, 0xbd047af93c70df97U, 0xbe047af9be4fc0d9U,
  0x3d40b2df3dd8c93bU, 0x3e79e7f9bd289c83U, 0x3e1f9421be82f994U, 0xbe7ceac53daea21aU,
  0x3d047af9bdfceac5U, 0xbdbaad48bdccbe0dU, 0x3dd8c93b3dbaad48U, 0xbe168bbebd108627U,
  0xbdeada003e908627U, 0xbd047af93e108627U, 0x3cf0df97bdeada00U, 0x3db4a7b13c40b2dfU,
  0x3e81782e3ebf3179U, 0x3c70df973e168bbeU, 0x3d968bbebe43b5abU, 0xbe877dc5bdd2c3a4U,
  0x3c40b2dfbdfceac5U, 0x3d58c93b3e968bbeU, 0x3e0a8090bdb4a7b1U, 0x3d9c9155be2599b8U,
  0xbddeced2be61d19eU, 0xbd4cbe0d3e998e8aU, 0xbe2ea21a3e43b5abU, 0xbb40b2df3e92078dU,
  0x3d8d1a673e289c83U, 0xbde98ccebe8d1a67U, 0x3c9bb334be883ccdU, 0xbe4c5b34be8227cdU,
  0x3ddaf401be588534U, 0xbd698ccebdbdc267U, 0xbcaf299a3e70d934U, 0xbe624067bd38e4cdU,
  0xbe8e51cdbdd61667U, 0xbe2090cdbe53a79aU, 0x3e75b6ce3e477d9aU, 0xbdc2a0013d5fd19aU,
  0x3da090cdbd11f801U, 0x3e477d9abc698cceU, 0xbe38e4cd3ddfd19aU, 0x3e588534be7d0334U,
  0xbbe98ccebd8d1a67U, 0xbd256e673e64af34U, 0xbe2a4c013db8e4cdU, 0x3e27dd34bd91f801U,
  0x3dc2a001be624067U, 0xbe959e343da56e67U, 0xbe3dc2673e2a4c01U, 0x3d42a001bd7d0334U,
  0x3e1bb3343d883ccdU, 0x3d2f299a3e8227cdU, 0xbdaf299a3c883ccdU, 0x3e5fd19abc9bb334U,
  0xbd11f8013e27dd34U, 0x3db8e4cdbe0aab9aU, 0xbe319867be9a7bcdU, 0xbe8d1a67be0f8934U,
  0xbcd61667bdbdc267U, 0xbc698ccebcfd0334U, 0xbc42a0013d883ccdU, 0xbd4c5b343e8227cdU,
  0x3e2cbacdbdd61667U, 0x3dee6a67be8be301U, 0xbdc2a001be22ff9aU, 0xbe16d59abe561667U,
  0xbe1944673e7d0334U, 0xbb9bb334bce98cceU, 0xbd256e673d835f34U, 0x3db407343c9bb334U,
  0xbe8f89343e2090cdU, 0xbe0d1a673e1466cdU, 0x3e4c5b343e0f8934U, 0xbe42a0013d2f299aU,
  0xbde6ebf63e1e2201U, 0xbe0a8d933d8a8d93U, 0xbd856be3be406f4dU, 0xbe2957b4be4821d5U,
  0xbd243604be961960U, 0xbb2436043e98aa38U, 0xbe056be3bd0faf44U, 0xbd056be33e4590fdU,
  0xbdcd43853d99f2a4U, 0xbe02db0b3d38bcc5U, 0xbccd4385be4fd45dU, 0xbcb8bcc53e8bd600U,
  0x3ccd43853e406f4dU, 0x3e54f60dbe3dde75U, 0xbd19f2a43e894527U, 0xbe804a33be4d4385U,
  0xbd856be3bd94d0f4U, 0xbc8faf443c243604U, 0xbe9761ccbe406f4dU, 0x3d0faf44bd99f2a4U,
  0x3db39b15be1f1454U, 0xbd2436043e712f56U, 0x3e526535be8bd600U, 0x3e5ca896bd804a33U,
  0x3e99f2a43e362bedU, 0xbdb8bcc53df65106U, 0x3bf65106be3b4d9dU, 0xbd765106be2957b4U,
  0x3e07fcbbbc765106U, 0xbda43604be1f1454U, 0x3ccd4385be5f396eU, 0xbd61ca46be4590fdU,
  0xbdbdde753e056be3U, 0x3cf65106bde1ca46U, 0xbe90f7b03e697cceU, 0x3e14d0f4bd0faf44U,
  0x3e38bcc5be2957b4U, 0xbd4d43853d6c0da6U, 0xbe90f7b03da43604U, 0xbe98aa38be82db0bU,
  0xbe2be88c3e1c837cU, 0x3d61ca46bd4d4385U, 0xbd99f2a4be056be3U, 0x3c8faf443ba43604U,
  0xbea2ed983da957b4U, 0x3dc821d5bdb8bcc5U, 0xbce1ca46bdf65106U, 0x3d19f2a4bd99f2a4U,
  0xbd0854af3dc821d5U, 0xbe1f0d773e924587U, 0x3c35c63fbce337cfU, 0xbe389d583e924587U,
  0xbce337cfbddd899dU, 0xbdd22d393e30180dU, 0xbd93b113be13b113U, 0x3d0854afbdc122a3U,
  0x3e77197e3d35c63fU, 0xbe716b4c3e21e490U, 0x3dcc7f07bc8854afU, 0x3e21e4903d35c63fU,
  0xbd4122a3bda4bba9U, 0x3d1f0d77bccc7f07U, 0xbd9f0d77be30180dU, 0x3d82a67d3d79f097U,
  0x3e32ef26bce337cfU, 0xbcb5c63f3eb45ab2U, 0xbe30180dbe10d9faU, 0xbc0854afbd82a67dU,
  0x3e5d899d3dd22d39U, 0x3d1f0d773d8854afU, 0x3e5ab284bd995f45U, 0xbe6bbd1abdf44265U,
  0x3d93b1133e057d96U, 0xbd82a67d3e13b113U, 0xbdaa69dbbc9f0d77U, 0xbe522d393b35c63fU,
  0xbe2a69dbU, 0xbd2a69dbbe02a67dU, 0xbdf9f0973e951ca0U, 0x3d35c63f3e995f45U,
  0x3d79f0973e24bba9U, 0x3d35c63f3e716b4cU, 0xbe89c03c3d79f097U, 0xbbb5c63fbe24bba9U,
  0x3e02a67dbdff9ec9U, 0xbe79f0973dee9433U, 0x3e0b2bc83c0854afU, 0xbe9da1eb3e0854afU,
  0x3df9f097be10d9faU, 0x3ccc7f07be1f0d77U, 0xbd79f0973d79f097U, 0xbdd7db6bbe93b113U,
  0x3da4bba9bccc7f07U, 0xbe2d40f43e30180dU, 0xbe02a67d3ce337cfU, 0xbe0e02e13c35c63fU,
  0xbb18a8ed3e30180dU, 0xbe0a59173ddb72d5U, 0xbd18a8ed3e4d22ffU, 0x3d8f1e5ebe1d6e35U,
  0x3d98a8edbcf81282U, 0x3dfcd7c9bd8593d0U, 0x3cabbe0bbdcd22ffU, 0x3d51e8463be4fd64U,
  0xbe92b2543dbed329U, 0xbd18a8ed3d5b72d5U, 0xbda6f8c4be6c254fU, 0x3e5b72d53d64fd64U,
  0xbd8593d03d98a8edU, 0xbe8593d0bdbed329U, 0x3d80ce88be1d6e35U, 0xbb18a8edbdb08352U,
  0x3da2337cU, 0x3b98a8edbe18a8edU, 0xbe118102bcabbe0bU, 0xbd6e87f33b18a8edU,
  0x3e96464abdee87f3U, 0x3df34d3a3d485db7U, 0x3dd6ad8ebdbed329U, 0x3e16464abd64fd64U,
  0x3e485db73df34d3aU, 0x3e97779b3d3ed329U, 0x3d64fd64bdd6ad8eU, 0xbdc85db7bdabbe0bU,
  0xbde0381c3d9d6e35U, 0xbe629ac03d51e846U, 0x3e84627ebd6e87f3U, 0x3c64fd64bd98a8edU,
  0xbd35489abe18a8edU, 0xbe1b0b91bd98a8edU, 0xbe1d6e353da2337cU, 0x3dee87f33e84627eU,
  0x3d0f1e5e3e03312cU, 0xbe8593d03e0a5917U, 0x3d485db73e4135ccU, 0x3d18a8ed3e64fd64U,
  0x3e86c521be4ac05bU, 0x3e60381c3e591031U, 0xbdc85db73db08352U, 0x3e904fb0bd0593d0U,
  0xbc18a8edbdee87f3U, 0xbd98a8edbe00ce88U, 0xbe2e20afbe84627eU, 0xbdc398703db08352U,
  0xbe07c4cebcbed329U, 0x3e593ae4be84c06fU, 0xbcf15de100000000U, 0x3daefda93d9ce36cU,
  0x3b4117e7be533225U, 0x3e2efda93dfd6f5fU, 0x3e320209bc4117e7U, 0xbdc720a63d350669U,
  0x3d28f4ea3e07c4ceU, 0x3e6850c23e441c47U, 0x3bc117e73e4117e7U, 0x3dcd29653d4117e7U,
  0x3e07c4cebd9ce36cU, 0x3d96daacbcc117e7U, 0x3b4117e7be2efda9U, 0x3d9ce36c3da2ec2bU,
  0x3e4d29653e0dcd8eU, 0xbe4d29653e04c06fU, 0xbd90d1ed3d10d1edU, 0xbe5c3f43bd84c06fU,
  0x3e4117e73e4d2965U, 0xbd7d6f5fbe7a6b00U, 0x3da2ec2b3cf15de1U, 0x3d1ce36c3da2ec2bU,
  0x3bc117e7bdc720a6U, 0xbc4117e73daefda9U, 0xbbc117e7bc90d1edU, 0x3c10d1ed3b4117e7U,
  0x3e19df0cbe10d1edU, 0x3cd93ae4bd28f4eaU, 0xbca8f4ea3e07c4ceU, 0x3cc117e7be28f4eaU,
  0xbd04c06fbc10d1edU, 0xbd84c06fbe8dcd8eU, 0x3d4d29653c4117e7U, 0x3de54c62bde54c62U,
  0x3e93d64d00000000U, 0xbe3506693d654c62U, 0xbd654c62bd654c62U, 0x3e7a6b00be6e5981U,
  0xbddf43a33deb5522U, 0xbebf95b7bdd93ae4U, 0xbe3506693ea8f4eaU, 0x3df766a0be1fe7cbU,
  0xbe1fe7cbbdd33225U, 0x3e9fe7cbbd4117e7U, 0xbda2ec2b3e28f4eaU, 0x3d1ce36cbe5f43a3U,
  0xbe1c75e6be4720a6U, 0x3e09e5be3e29b84cU, 0xbe0497fbbe6168c5U, 0xbe46e3f93dd4265fU,
  0xbd89e5bebd29b84cU, 0x3e073edcbdc98adaU, 0xbe246a8abd498adaU, 0x3e597421bd3eef55U,
  0xbdc98adabe2f060eU, 0x3e73f8edbe073edcU, 0xbd8497fb3da46a8aU, 0x3d5ec1e4bd498adaU,
  0x3e517f7ebd54265fU, 0x3d695d683deeab2bU, 0xbb29b84cbdf3f8edU, 0xbea5bdfabe3453d1U,
  0xbd1f1cc73d99cf05U, 0xbe8497fb3d9f1cc7U, 0x3df3f8ed3e46e3f9U, 0xbd948142U,
  0xbe21c3a83d9f1cc7U, 0x3db9a1933e09e5beU, 0x3dd4265fbd498adaU, 0xbd7e94723dbeef55U,
  0x3d7e94723e91da61U, 0xbde95d68bea864dbU, 0xbe419637bd09e5beU, 0x3e172824bd29b84cU,
  0x3e498adabe419637U, 0x3d89e5bebca9b84cU, 0x3e3c48743cd4265fU, 0x3bfe94723d498adaU,
  0xbd5ec1e43e6eab2bU, 0xbe073edc3e7946afU, 0xbe31acef3e1f1cc7U, 0x3ca9b84cbd695d68U,
  0xbcbeef553db453d1U, 0x3e29b84cbe56cd40U, 0x3e246a8abde40fa6U, 0x3e66b6873c7e9472U,
  0x3db9a193bca9b84cU, 0xbe873edcbcfe9472U, 0xbd54265f3e31acefU, 0x3e54265f3e71520cU,
  0xbe6eab2b3e6eab2bU, 0x3cbeef553e39a193U, 0xbd09e5bebe073edcU, 0xbdd974213ddec1e4U,
  0x3e2a1ed8bcbeef55U, 0xbda76b903e3d05d4U, 0xbde83a5c3dd2a018U, 0xbe2204ff3e276b90U,
  0xbde2d3cb3c819d98U, 0x3e8dc45fbd870429U, 0xbd6da0edbe555360U, 0xbe276b903e0450e1U,
  0x3e5806a9bdb238b2U, 0x3e5d6d3abe9737dcU, 0xbe379f43bda204ffU, 0xbdc26c65bdd806a9U,
  0x3dfdd4a03e0450e1U, 0x3c2cd221be9f51b6U, 0x3cacd221be070429U, 0xbd6da0ed3e4d3987U,
  0xbddd6d3abd5806a9U, 0x3e148494be705435U, 0x3d1737dc3e6da0edU, 0xbe5ab9f13d379f43U,
  0x3c019d98be5ab9f1U, 0x3ea0ab5abdb238b2U, 0xbdbd05d4U, 0xbdacd221bdb79f43U,
  0xbd62d3cb3dacd221U, 0x3dacd221be24b847U, 0xbd819d983d6da0edU, 0xbdf3077e3de83a5cU,
  0x3e9737dcbe0f1e03U, 0xbde83a5cbd4d3987U, 0x3d2204ffbe2a1ed8U, 0x3de2d3cb3d0c6abaU,
  0x3b2cd2213e7b2157U, 0xbc019d98be7b2157U, 0xbe19eb253e786e0fU, 0x3e0f1e033eab787cU,
  0x3e5ab9f1bdeda0edU, 0xbd4d39873e24b847U, 0xbdc26c65bd5806a9U, 0xbcc26c65be85aa85U,
  0xbe4a863ebe34ebfaU, 0xbc5806a93d019d98U, 0x3dc26c65be3a528bU, 0xbe8043f43c019d98U,
  0xbe426c653e09b772U, 0x3e75bac63da76b90U, 0x3dbd05d43ceda0edU, 0x3cd806a9be4d3987U,
  0xbce0604fbc819d98U, 0x3e239b8f3dcdad9dU, 0xbbe0604fbdf31300U, 0x3e7c6c58be0c3c31U,
  0xbe10e8ddbdcdad9dU, 0x3e2cf4e7be89e5dbU, 0x3da39b8fbe05392fU, 0x3e54b0a0be46aa9bU,
  0x3db1a193bd9eeee2U, 0x3de0604f3e1eeee2U, 0xbd8c3c31bde9b9a7U, 0xbd9a4236be0c3c31U,
  0x3e5003f3bca8483bU, 0x3dbfa798bde9b9a7U, 0x3cf31300bd31a193U, 0x3dee66533dc45445U,
  0xbdd25a4a3e33f7eaU, 0x3dfc6c58bd02e2d8U, 0xbdc454453e8d675cU, 0x3e17ebe03e1eeee2U,
  0x3d9a4236bd28483bU, 0xbdcdad9dbe28483bU, 0xbe41fdefbb95958aU, 0xbe1c988cbdb1a193U,
  0xbdcdad9dbe5bb3a2U, 0x3e02e2d8bca8483bU, 0xbe10e8dd3e731300U, 0x3cf313003e88bab0U,
  0xbdee66533e808c82U, 0x3e60604f3d90e8ddU, 0xbe31a193bd95958aU, 0x3e1eeee23da8483bU,
  0x3e3d5142bdf31300U, 0xbcf313003e02e2d8U, 0x3d5706f6bda8483bU, 0x3e1eeee2bd69b9a7U,
  0xbe0e9287bdcdad9dU, 0x3e2a9e91be4b5747U, 0xbdee66533dcdad9dU, 0xbe946a5fbe38a496U,
  0x3dcdad9dbdf31300U, 0x3dacf4e73e008c82U, 0x3da39b8fbdbafaecU, 0x3e25f1e53be0604fU,
  0xbde50cfbbc95958aU, 0xbd02e2d83be0604fU, 0xbb15958a3c60604fU, 0xbe81b7ad3dc45445U,
  0xbe2e80c23c3afaecU, 0xbb21db9abe4543a4U, 0xbd88914a3cb6170eU, 0x3c4a52813e08914aU,
  0x3d4a5281bdf7d844U, 0x3e2e80c2bb21db9aU, 0xbd17bde1be2e80c2U, 0xbe597f17bdedba8bU,
  0xbba1db9abe1a454fU, 0xbdd4703bbd9cccbeU, 0xbdf7d8443cb6170eU, 0x3dd4703bbd92af04U,
  0xbde8abae3d4a5281U, 0xbcf2c968be310831U, 0x3e1f542c3c4a5281U, 0xbe88914aU,
  0x3e338f9fbdabf954U, 0x3de39cd13e7550d6U, 0xbc4a5281bcde8df4U, 0x3ca1db9a3e77d844U,
  0xbdd4703bbe80faffU, 0xbd9cccbe3e0da027U, 0xbdf2c968bcf2c968U, 0x3de39cd1bb21db9aU,
  0x3dde8df4bd4034c7U, 0xbe51e8cc3d72c968U, 0x3e00faffbe00faffU, 0x3df2c9683dd97f17U,
  0x3ba1db9a3db10831U, 0xbe17bde1bc72c968U, 0xbdd4703b3dca5281U, 0x3e7f6e903e3dad59U,
  0x3e08914abde39cd1U, 0xbcf2c9683db10831U, 0x3c4a5281be4034c7U, 0xbcca52813e1f542cU,
  0xbe5e8df43e153672U, 0xbe54703b3e00faffU, 0xbda6ea773e26ea77U, 0xbe611563be5c0686U,
  0xbd21db9a3c21db9aU, 0x3e17bde1bc72c968U, 0xbe42bc36be874d93U, 0x3e0da027bdc543a4U,
  0x3ea097e33d17bde1U, 0x3db10831bb21db9aU, 0xbcde8df43ba1db9aU, 0x3de39cd13d4a5281U,
  0xbdf6d83ebd88914aU, 0x3dca69a43de808b5U, 0x3d76d83e3d1dfb09U, 0xbe6590c9bdd44954U,
  0xbdb6aa43bdb1ba6aU, 0x3e2f427ebd27dabaU, 0xbe4579cb3e190b31U, 0x3e141b59bcb1ba6aU,
  0x3d8a3ba8be71e866U, 0x3df1e8663d941b59U, 0x3d3b9a1b3e990b31U, 0xbde808b5bda7dabaU,
  0xbe6808b5bdfbc817U, 0x3e1dfb093e4ce190U, 0xbd59392d3e11a36cU, 0x3c4579cbbd31ba6aU,
  0x3dacca923e0cb394U, 0x3d990b313e3b9a1bU, 0x3dde2905bd854bd0U, 0xbdc089f33decf88eU,
  0x3dc089f33e79502aU, 0xbd0a3ba8bcd9392dU, 0xbd8a3ba83db1ba6aU, 0xbe0cb394bd31ba6aU,
  0xbc9dfb093e07c3bcU, 0x3e27dababe5bb119U, 0xbd3b9a1b3e3b9a1bU, 0xbe005bf73d9dfb09U,
  0xbd4579cbbe054bd0U, 0xbd0a3ba83e1dfb09U, 0xbd005bf73e4089f3U, 0x3e746052bdca69a4U,
  0xbdb1ba6a3e51d168U, 0xbe2072f5be4579cbU, 0xbdb6aa433e22eae1U, 0x3da2eae1bd4f597cU,
  0xbd3b9a1bbe141b59U, 0xbdc089f33b9dfb09U, 0xbe11a36c3becf88eU, 0xbdde29053b1dfb09U,
  0xbe4ce190bd0a3ba8U, 0xbe2562cebc8a3ba8U, 0xbe6a80a23e9cbf13U, 0x3e190b313df6d83eU,
  0x3c1dfb09bb1dfb09U, 0xbe02d3e43b1dfb09U, 0xbd4579cbbdd44954U, 0x3e141b593b9dfb09U,
  0xbe55c593bd27dabaU, 0x3de0bc04bdc553eaU, 0x3e1ef5603da9ebd1U, 0xbe09087f3da47099U,
  0x3e0e83b7beae083bU, 0x3e4acf23bd9ef560U, 0xbdebb2743b2f6709U, 0x3e6bb274bb2f6709U,
  0x3d038d473e29ebd1U, 0x3e00cfabbe1c37c4U, 0x3d504a5bbd197a28U, 0xbd8e83b73ddb40cbU,
  0xbe5307f73e5307f7U, 0xbe3d1b16bb2f6709U, 0x3e3a5d7a3e4553eaU, 0x3e4553eabe7c241dU,
  0xbe2ca96d3d93fef0U, 0x3b2f67093c2f6709U, 0x3ddb40cbbe3d1b16U, 0x3e038d473e6bb274U,
  0xbdc553ea00000000U, 0x3cc553ea3c838d47U, 0x3e0e83b73baf6709U, 0x3b2f67093e9d9692U,
  0xbd4553ea3e4acf23U, 0x3d3a5d7a3e197a28U, 0x3df6a8e53da47099U, 0xbe8bc61b3c038d47U,
  0x3de0bc043d2f6709U, 0x3e3a5d7abe7c241dU, 0x3db4e2413caf6709U, 0x3e504a5b3e272e35U,
  0x3cc553eabd0e83b7U, 0x3debb274bdcacf23U, 0xbd7c241d00000000U, 0xbe997a28bcaf6709U,
  0xbd3a5d7abe8fe285U, 0xbd8e83b7be0bc61bU, 0x3e481186bd5b40cbU, 0xbd2470993dcacf23U,
  0xbe13fef03e955dbeU, 0xbcaf67093e6e7010U, 0xbdb4e2413b2f6709U, 0x3dfc241d3c997a28U,
  0xbdfc241dU, 0xbd7c241d3dbfd8b2U, 0xbde6373c3e272e35U, 0xbb2f67093e5b40cbU,
  0xbe2f3a033dd5c593U, 0x3cd465593d84bf57U, 0xbe274303bd99fcadU, 0x3d8a0eadbe348958U,
  0x3dbf2803bbfee004U, 0xbe29eaad3d69a2aeU, 0x3e1ca458bca9eaadU, 0xbd3489583ba9eaadU,
  0xbe0217ad3d348958U, 0x3d84bf573db9d8aeU, 0x3e836b82be98a8d8U, 0xbe0f5e02be80c3d7U,
  0xbdb9d8ae3cd46559U, 0x3c7ee004be19fcadU, 0x3e0a0eadbba9eaadU, 0xbca9eaadbe31e1aeU,
  0xbe66fb04bc29eaadU, 0xbd8a0eadbce9a2aeU, 0xbe570d03be876702U, 0x3e0217ad3e1205adU,
  0x3e3c8058be9b5082U, 0x3da49b583c94ad58U, 0xbe5465593e7ee004U, 0x3ce9a2ae3d29eaadU,
  0x3e4f1603be836b82U, 0xbe8b62823ce9a2aeU, 0xbdfee004be546559U, 0xbdeef204be7199afU,
  0x3cbf28033e39d8aeU, 0xbd49c6aebe69a2aeU, 0xbd8f5e023e3f2803U, 0x3cd46559be69a2aeU,
  0x3d14ad583c7ee004U, 0x3de9a2ae3e0cb658U, 0x3c94ad58bcbf2803U, 0x3de9a2aebdc47758U,
  0x3e744159be04bf57U, 0x3e39d8aebe5c5c59U, 0x3deef204bca9eaadU, 0x3c94ad583e0217adU,
  0xbce9a2aebe0cb658U, 0xbdf44159be7c3859U, 0xbe175502bd94ad58U, 0xbd546559bd94ad58U,
  0xbe59b4aebea896d8U, 0x3e9205ad3e1205adU, 0xbddf04043e9f4c03U, 0xbd8a0eadbdb9d8aeU,
  0xbbad4f0bbe98a8d8U, 0x3c2d4f0b3cee4cb0U, 0xbb2d4f0b3de377bfU, 0xbdee4cb0bcc2f8edU,
  0xbc58a2cebd8765c1U, 0x3d17a52a3d7921a0U, 0x3b2d4f0bbe0a1afdU, 0x3bad4f0b3cad4f0bU,
  0xbe04b0853e300447U, 0x3dd338563e356ec0U, 0x3e4b18a1bd923ab2U, 0x3e860b233d7921a0U,
  0xbe7101ecbe0f8575U, 0x3e0f85753df3b728U, 0xbe84b085bd9d0fa2U, 0xbd97a52a3db823fcU,
  0x3bad4f0b3db2b984U, 0x3cee4cb0be58a2ceU, 0x3d58a2ce3d6377bfU, 0x3d6e4cb03e2d4f0bU,
  0x3d7921a0bdfe8c19U, 0x3c01fb48be300447U, 0xbc81fb48be27e493U, 0x3e0765c13e252f57U,
  0xbe4043b1be0a1afdU, 0x3c81fb48be4dcdddU, 0xbd3823fc3c97a52aU, 0x3d4dcddd3dd8a2ceU,
  0x3c97a52a3d58a2ceU, 0xbe2a99cf3b2d4f0bU, 0xbd7921a0be3823fcU, 0xbe5b580abc81fb48U,
  0xbcd8a2ce3dad4f0bU, 0x3d01fb48bcad4f0bU, 0xbcd8a2cebeabf46dU, 0x3d3823fcbd227a1bU,
  0xbd227a1bbdad4f0bU, 0xbe2a99cf3dd33856U, 0xbdd8a2ce3d17a52aU, 0x3e3d8e743d01fb48U,
  0x3dcdcdddbe300447U, 0x3c58a2ce3e356ec0U, 0xbcee4cb03cad4f0bU, 0x3e7101ecbe55ed92U,
  0x3d923ab2bda7e493U, 0xbdad4f0b3dd33856U, 0xbdbd8e743e6b9773U, 0x3e1d0fa23e662cfbU,
  0x3de224323da7e493U, 0x3d0fe87d3db3e29cU, 0xbe007d4bbd434dceU, 0xbe57dcbbbd6c6ba8U,
  0x3d6c6ba83e0fe87dU, 0xbcf6b31f3c8fe87dU, 0x3d9a2ff3bdcd9545U, 0xbe8458173d8fe87dU,
  0xbd434dce00000000U, 0x3daebee1bbf6b31fU, 0xbc76b31fbe5a6e99U, 0x3bf6b31fbdec6ba8U,
  0x3cf6b31fbe742141U, 0x3e897bd3be742141U, 0x3c76b31f3d76b31fU, 0xbda4776abddd0076U,
  0xbd1a2ff3bb24776aU, 0xbdec6ba83e179e16U, 0xbe3b9835bdfbd6daU, 0x3e8832e4bdfbd6daU,
  0xbe40bbf0bc8fe87dU, 0xbcb906573e487189U, 0xbea32e7b3d2ebee1U, 0x3e7944fdbba4776aU,
  0x3d8fe87d3e030f28U, 0xbd4d95453cf6b31fU, 0xbde22432bdcd9545U, 0x3e64b60fbce22432U,
  0xbce224323dfbd6daU, 0x3e7bd6dabdaebee1U, 0xbdfbd6da3e6747edU, 0xbbf6b31f3e390657U,
  0xbd1a2ff3bd4d9545U, 0x3db906573ba4776aU, 0x3d76b31fbdaebee1U, 0xbe36747a3e299b25U,
  0x3e007d4b3d24776aU, 0x3e5a6e993e150c38U, 0xbcf6b31f3d76b31fU, 0xbd8fe87d3e150c38U,
  0xbe21e58c3dbe2a13U, 0xbe030f283e6747edU, 0xbcf6b31f3e57dcbbU, 0xbdc87189bd9a2ff3U,
  0xbddd0076be21e58cU, 0x3d6224323d76b31fU, 0x3e3150bebd9a2ff3U, 0xbba4776abe24776aU,
  0x3e3fb62e3e5d0076U, 0x3d6e581d3dee581dU, 0xbde3fb3dbe37f086U, 0xbbf8b4fd3ccf417dU,
  0xbe424d65bd11143eU, 0xbb25cdfebce3fb3dU, 0xbd6e581dbdb5594eU, 0x3e32c216bca5cdfeU,
  0xbccf417dbe302adeU, 0x3ba5cdfebccf417dU, 0xbe302ade3e209f8eU, 0x3e286536be37f086U,
  0x3e8d316abe424d65U, 0xbca5cdfebdb02adeU, 0xbdfde36d3e042026U, 0xbd3a87be3d3a87beU,
  0xbe0e7d06bdcf417dU, 0xbe5707253dd99e5dU, 0xbd86b75ebcba87beU, 0xbd3a87be3e32c216U,
  0x3daafc6e3dd46fedU, 0x3c4f417d3de929adU, 0x3e32c216bd06b75eU, 0xbe7b4c35be9b711eU,
  0x3dba87bebe424d65U, 0x3dba87bebe5c3595U, 0xbe0e7d06bcf8b4fdU, 0xbe286536be9b711eU,
  0x3e5c3595bdc4e49dU, 0x3df3868d00000000U, 0xbd8be5cebdd99e5dU, 0x3e2afc6ebe1b711eU,
  0xbdba87be3c78b4fdU, 0x3c78b4fdbea48262U, 0xbdf8b4fdbcf8b4fdU, 0x3d6e581dbe3d1ef6U,
  0xbbf8b4fd3e94f712U, 0x3e9e08563e8be5ceU, 0x3d1b711ebd86b75eU, 0xbdcf417d3dee581dU,
  0x3ba5cdfebd9642aeU, 0xbb25cdfe3dee581dU, 0xbd91143ebe8e7d06U, 0x3d25cdfe3dca130dU,
  0xbcf8b4fdbe11143eU, 0x3e9cbcba3d8be5ceU, 0x3ddecccd3d302adeU, 0x3d44e49d3d302adeU,
  0x3e76e9003dcf417dU, 0x3d5721303d9c753aU, 0x3e8c91523e4120b4U, 0xbe65cc2d3db9cb35U,
  0x3e2b2038bd88e693U, 0x3def93813e93e6d1U, 0x3cfe3e7ebe8c9152U, 0x3e3003e13c439289U,
  0x3e4392893b9c753aU, 0xbda63c8e3d8402e9U, 0x3e3eaedf3d263c8eU, 0x3d9c753a3d74772bU,
  0xbd5721303e903c12U, 0x3db003e1bde0e884U, 0xbd439289be08e693U, 0xbb9c753abe0dca3dU,
  0xbd88e693be439289U, 0xbcfe3e7ebe39cb35U, 0x3e39cb353df4772bU, 0x3db4e78b3d572130U,
  0xbcd72130bd7e3e7eU, 0xbc6aafd73d263c8eU, 0x3e572130be2158e4U, 0xbe795ad53cfe3e7eU,
  0x3d88e6933e65cc2dU, 0xbcb003e1be0dca3dU, 0xbe599305be0b5868U, 0xbd8402e93db9cb35U,
  0xbe9b3c503d88e693U, 0xbd6aafd7bdc87632U, 0x3dfe3e7ebdef9381U, 0x3df95ad5be23cab9U,
  0x3e2b2038bda158e4U, 0xbe0674bebe5c04daU, 0xbdd23d863e23cab9U, 0xbe08e6933d979190U,
  0xbe28ae633d88e693U, 0x3e23cab9be3eaedfU, 0xbdab20383e1a0365U, 0x3db003e13e8674beU,
  0x3d60e884bdab2038U, 0x3d572130bd572130U, 0x3e8a1f7dbd439289U, 0xbe523d86bda158e4U,
  0xbc88e6933dbeaedfU, 0xbc1c753abe7bccaaU, 0xbe375960bbeaafd7U, 0xbda63c8e3beaafd7U,
  0x3e3ba5493e0dca3dU, 0x3e2b3a053dc05637U, 0xbd0cbbf6be50c17aU, 0x3d835a19be0101a2U,
  0xbd6a8e9b3da430a0U, 0x3dc50726bcf3f078U, 0x3e0f146e3df8a167U, 0xbc3ba5493e50c17aU,
  0xbd161dd4bd0cbbf6U, 0x3e0cbbf6bdd319f2U, 0x3e394cd1be13c55cU, 0xbd035a193e7648efU,
  0x3d880b08bd450726U, 0xbe2430a0be116ce5U, 0xbda8e18ebe3ba549U, 0x3d7d5255be2feaf4U,
  0xbe13c55cbc612cbeU, 0xbc835a19bd6a8e9bU, 0xbc612cbebd961dd4U, 0x3e880b083e49b814U,
  0x3e3ba5493e835a19U, 0xbdc056373df3f078U, 0xbd3ba549bd73f078U, 0xbd6a8e9bbe3dfdc0U,
  0x3e5ed446bc961dd4U, 0xbe7faacd3de5ddacU, 0x3d73f078be880b08U, 0x3e719801bc161dd4U,
  0xbdfd5255bd835a19U, 0x3e9040a93e116ce5U, 0xbe2689173e080b08U, 0xbcf3f0783d32436bU,
  0x3dc507263e8a637fU, 0xbd961dd43d4e6903U, 0xbe835a193e42aeafU, 0x3da430a0bd916ce5U,
  0x3d880b083e0a637fU, 0x3e5c7bcf3e49b814U, 0xbdc0563700000000U, 0xbd961dd4bd1f7fb1U,
  0x3e161dd4bd835a19U, 0x3cbba549bdfd5255U, 0xbe0a637fbe835a19U, 0xbe1d273aU,
  0xbe6a8e9b3e1d273aU, 0x3dd319f23e42aeafU, 0xbe21d828bddc7bcfU, 0xbda430a03e94f198U,
  0x3d36df4bbd73f078U, 0xbe5cf87b3e84130cU, 0xbddf82b13d1864bfU, 0x3d36df4b3dc10825U,
  0xbdc108253b228d98U, 0x3e50456b3e396981U, 0xbdc61c913dd0456bU, 0x3e0927783db1cadeU,
  0x3e8e3be53d228d98U, 0xbd5f82b13ea1487dU, 0xbe345515bdd0456bU, 0x3e31cadebcf3d464U,
  0xbc73d4643cdf82b1U, 0xbda7a2053d69ab8bU, 0xbdc61c91be78e8d1U, 0xbcb6df4b3dd559d8U,
  0xbd7dfd3ebe69ab8bU, 0x3e8e3be5bccb30feU, 0xbe52cfa1be2a2c3bU, 0x3d04130c3cb6df4bU,
  0xbc73d4643ccb30feU, 0x3de4971ebd1864bfU, 0xbe2003623cb6df4bU, 0xbde4971e3e6c35c1U,
  0xbe82cdf03ddf82b1U, 0xbdf8e8d1bba28d98U, 0xbd8e3be53d935052U, 0x3e9c3410be1864bfU,
  0xbe6c35c13e50456bU, 0xbcdf82b1be8f8100U, 0xbe8043babe6c35c1U, 0xbdbbf3b8bd0e3be5U,
  0x3e78e8d13e3e7deeU, 0xbd5f82b13e0e3be5U, 0x3db6df4b3e15da88U, 0xbd9d792b3c4b30feU,
  0xbd2cb6723e9864bfU, 0xbd9d792bbda7a205U, 0x3e1aeef53b228d98U, 0xbdb6df4b3e31cadeU,
  0xbd1864bfbe461c91U, 0x3ba28d98be620ce7U, 0xbdbbf3b8be7dfd3eU, 0x3e092778U,
  0x3e5f82b13e2a2c3bU, 0x3e2cb6723e092778U, 0xbc228d983dda6e44U, 0xbe345515be3e7deeU,
  0xbd8578073e1aeef5U, 0x3d9f22cdbd4311e3U, 0xbd8055df3e2e8944U, 0x3e02e6f3bddcbca9U,
  0x3e55096dbd9a00a5U, 0xbe6700f83dec2320U, 0xbdae89443e61ded1U, 0xbe55096dbd94de7eU,
  0xbe842f7dbdb8cd93U, 0x3e7b89973d38cd93U, 0x3e0055dfbba444f5U, 0xbccd56323e3b5ea7U,
  0x3d94de7e3da9671cU, 0xbe88091bbbf6676fU, 0x3e2e8944bdcd5632U, 0x3dd2785a3d057807U,
  0x3d9a00a53da9671cU, 0xbc8fbc56be2444f5U, 0xbd4d56323dcd5632U, 0x3dfb8997be842f7dU,
  0x3e02e6f33e1a00a5U, 0xbd4d56323da9671cU, 0xbdae8944bd6c2320U, 0xbc76676f3d8fbc56U,
  0x3de700f8be1a00a5U, 0xbd94de7ebc4d5632U, 0x3d38cd93bd2444f5U, 0x3bf6676f3e61ded1U,
  0xbe45a2f6be4d5632U, 0xbd8fbc563e29671cU, 0xbe29671cbdae8944U, 0x3d94de7ebe38cd93U,
  0xbd4d5632bdb3ab6cU, 0x3e86c0913dae8944U, 0xbe0055dfbe176f92U, 0xbd6c23203b2444f5U,
  0xbd9f22cdbde1ded1U, 0xbe76676fbe0d2b42U, 0x3e6700f8bd8fbc56U, 0x3ea2fc6b3e26d609U,
  0x3cb8cd933e5f4dbdU, 0xbe176f923e0d2b42U, 0x3ca444f53db3ab6cU, 0x3e14de7ebccd5632U,
  0x3dc311e33df6676fU, 0x3d857807bce1ded1U, 0xbe0d2b423e8be2b8U, 0xbe842f7dU,
  0x3e0b1815bdd79a81U, 0xbe05be8abe7616eaU, 0xbd9b24b5be81bb62U, 0x3e28848fbdb08adfU,
  0x3c0064ff3d85be8aU, 0xbe50a41fbe3deabaU, 0x3e3b3df5bc2b3155U, 0xbe50a41f3e0311c5U,
  0x3e4b4a943d0064ffU, 0xbdab31553e086b4fU, 0xbdd0a41fbe40977fU, 0x3e3b3df5bcab3155U,
  0x3e40977fbd4b4a94U, 0x3e1877efbe1b24b5U, 0x3d7616ea3e5e03faU, 0x3dfb70743cd5fdaaU,
  0x3db08adf3d2b3155U, 0xbda5d7ca3e7616eaU, 0x3c0064ff3e60b0bfU, 0x3e5e03fabcab3155U,
  0xbe68b70f3ceb63d4U, 0x3cab3155bdd5fdaaU, 0xbd35e46abdfb7074U, 0x3e3deababe886b4fU,
  0x3d8064ff3da5d7caU, 0xbd2b31553e15cb2aU, 0xbe0311c53de60a4aU, 0x3dd5fdaa3cd5fdaaU,
  0xbe308adfbea9daf2U, 0x3c95cb2abe97218dU, 0xbea32b05bdd5fdaaU, 0x3ceb63d43e1877efU,
  0xbe3337a53dfb7074U, 0xbe38912f3e45f10aU, 0x3e78c3afbdf0bd5fU, 0xbbab3155bda5d7caU,
  0xbe3b3df53da07e3fU, 0x3e8b1815bb2b3155U, 0xbe635d84be70bd5fU, 0xbdf616ea3df0bd5fU,
  0xbdd5fdaabe0dc4daU, 0xbe8714edbd7616eaU, 0x3e0311c5bc2b3155U, 0x3e38912f3d0064ffU,
  0xbdab3155be28848fU, 0x3bab3155bdb5e46aU, 0xbe8b18153e434444U, 0x3ddb5734be35e46aU,
  0xbe3c1386be45f10aU, 0x3e835ad7bdc50843U, 0xbdcb00c13ca72dccU, 0x3ca72dcc3e0c4f95U,
  0xbe805e983ea5afadU, 0x3d0f4bd400000000U, 0xbde2e2babe6bd777U, 0x3ceed3b63d272dccU,
  0x3d3f0fc5be0f4bd4U, 0x3c3f0fc53e30228aU, 0x3da1354e3db91747U, 0x3dd0f93fbdf4cc34U,
  0x3e3917473c6ed3b6U, 0xbe7dc0f2bd895356U, 0xbd1b3cd03c6ed3b6U, 0x3b3f0fc53df4cc34U,
  0xbd7ac4b23e5fe67bU, 0xbe0f4bd43e4b00c1U, 0x3e8dcdb4bd6ed3b6U, 0x3e90c9f3bd272dccU,
  0xbd035ad73e56f1beU, 0x3dd0f93fbe095356U, 0xbe035ad73e24318dU, 0xbe6bd7773d7ac4b2U,
  0x3eaea46abd035ad7U, 0x3dd6f1bebe124813U, 0xbe5fe67bbe71cff5U, 0x3d56f1bebc8f4bd4U,
  0xbe4b00c1bdeed3b6U, 0x3c0f4bd43db31ec9U, 0xbd56f1bebe0f4bd4U, 0x3ca72dcc3dd0f93fU,
